{
  "version": "1.0",
  "truncation": null,
  "padding": null,
  "added_tokens": [
    {
      "id": 0,
      "content": "[PAD]",
      "single_word": false,
      "lstrip": false,
      "rstrip": false,
      "normalized": false,
      "special": true
    },
    {
      "id": 1,
      "content": "[UNK]",
      "single_word": false,
      "lstrip": false,
      "rstrip": false,
      "normalized": false,
      "special": true
    },
    {
      "id": 2,
      "content": "[CLS]",
      "single_word": false,
      "lstrip": false,
      "rstrip": false,
      "normalized": false,
      "special": true
    },
    {
      "id": 3,
      "content": "[SEP]",
      "single_word": false,
      "lstrip": false,
      "rstrip": false,
      "normalized": false,
      "special": true
    },
    {
      "id": 4,
      "content": "[MASK]",
      "single_word": false,
      "lstrip": false,
      "rstrip": false,
      "normalized": false,
      "special": true
    }
  ],
  "normalizer": {
    "type": "BertNormalizer",
    "clean_text": true,
    "handle_chinese_chars": true,
    "strip_accents": null,
    "lowercase": false
  },
  "pre_tokenizer": {
    "type": "BertPreTokenizer"
  },
  "post_processor": {
    "type": "TemplateProcessing",
    "single": [
      {
        "SpecialToken": {
          "id": "[CLS]",
          "type_id": 0
        }
      },
      {
        "Sequence": {
          "id": "A",
          "type_id": 0
        }
      },
      {
        "SpecialToken": {
          "id": "[SEP]",
          "type_id": 0
        }
      }
    ],
    "pair": [
      {
        "SpecialToken": {
          "id": "[CLS]",
          "type_id": 0
        }
      },
      {
        "Sequence": {
          "id": "A",
          "type_id": 0
        }
      },
      {
        "SpecialToken": {
          "id": "[SEP]",
          "type_id": 0
        }
      },
      {
        "Sequence": {
          "id": "B",
          "type_id": 1
        }
      },
      {
        "SpecialToken": {
          "id": "[SEP]",
          "type_id": 1
        }
      }
    ],
    "special_tokens": {
      "[CLS]": {
        "id": "[CLS]",
        "ids": [
          2
        ],
        "tokens": [
          "[CLS]"
        ]
      },
      "[SEP]": {
        "id": "[SEP]",
        "ids": [
          3
        ],
        "tokens": [
          "[SEP]"
        ]
      }
    }
  },
  "decoder": {
    "type": "WordPiece",
    "prefix": "##",
    "cleanup": true
  },
  "model": {
    "type": "WordPiece",
    "unk_token": "[UNK]",
    "continuing_subword_prefix": "##",
    "max_input_chars_per_word": 100,
    "vocab": {
      "[PAD]": 0,
      "[UNK]": 1,
      "[CLS]": 2,
      "[SEP]": 3,
      "[MASK]": 4,
      "!": 5,
      "\"": 6,
      "#": 7,
      "$": 8,
      "%": 9,
      "&": 10,
      "'": 11,
      "(": 12,
      ")": 13,
      "*": 14,
      "+": 15,
      ",": 16,
      "-": 17,
      ".": 18,
      "/": 19,
      "0": 20,
      "1": 21,
      "2": 22,
      "3": 23,
      "4": 24,
      "5": 25,
      "6": 26,
      "7": 27,
      "8": 28,
      "9": 29,
      ":": 30,
      ";": 31,
      "<": 32,
      "=": 33,
      ">": 34,
      "?": 35,
      "@": 36,
      "A": 37,
      "B": 38,
      "C": 39,
      "D": 40,
      "E": 41,
      "F": 42,
      "G": 43,
      "H": 44,
      "I": 45,
      "J": 46,
      "K": 47,
      "L": 48,
      "M": 49,
      "N": 50,
      "O": 51,
      "P": 52,
      "Q": 53,
      "R": 54,
      "S": 55,
      "T": 56,
      "U": 57,
      "V": 58,
      "W": 59,
      "X": 60,
      "Y": 61,
      "Z": 62,
      "[": 63,
      "\\": 64,
      "]": 65,
      "^": 66,
      "_": 67,
      "`": 68,
      "a": 69,
      "b": 70,
      "c": 71,
      "d": 72,
      "e": 73,
      "f": 74,
      "g": 75,
      "h": 76,
      "i": 77,
      "j": 78,
      "k": 79,
      "l": 80,
      "m": 81,
      "n": 82,
      "o": 83,
      "p": 84,
      "q": 85,
      "r": 86,
      "s": 87,
      "t": 88,
      "u": 89,
      "v": 90,
      "w": 91,
      "x": 92,
      "y": 93,
      "z": 94,
      "{": 95,
      "|": 96,
      "}": 97,
      "~": 98,
      "¡": 99,
      "¢": 100,
      "£": 101,
      "¤": 102,
      "¥": 103,
      "¦": 104,
      "§": 105,
      "¨": 106,
      "©": 107,
      "ª": 108,
      "«": 109,
      "¬": 110,
      "®": 111,
      "¯": 112,
      "°": 113,
      "±": 114,
      "²": 115,
      "³": 116,
      "´": 117,
      "µ": 118,
      "¶": 119,
      "·": 120,
      "¸": 121,
      "¹": 122,
      "º": 123,
      "»": 124,
      "¼": 125,
      "½": 126,
      "¾": 127,
      "¿": 128,
      "Á": 129,
      "Â": 130,
      "Ã": 131,
      "Ä": 132,
      "Å": 133,
      "Æ": 134,
      "Ç": 135,
      "É": 136,
      "Ê": 137,
      "Ì": 138,
      "Í": 139,
      "Î": 140,
      "Ï": 141,
      "Ð": 142,
      "Ó": 143,
      "Ö": 144,
      "×": 145,
      "Ø": 146,
      "Û": 147,
      "Ü": 148,
      "Ý": 149,
      "Þ": 150,
      "ß": 151,
      "à": 152,
      "á": 153,
      "â": 154,
      "ã": 155,
      "ä": 156,
      "å": 157,
      "æ": 158,
      "ç": 159,
      "è": 160,
      "é": 161,
      "ê": 162,
      "ë": 163,
      "ì": 164,
      "í": 165,
      "î": 166,
      "ï": 167,
      "ð": 168,
      "ñ": 169,
      "ò": 170,
      "ó": 171,
      "ô": 172,
      "õ": 173,
      "ö": 174,
      "÷": 175,
      "ø": 176,
      "ù": 177,
      "ú": 178,
      "û": 179,
      "ü": 180,
      "ý": 181,
      "þ": 182,
      "ÿ": 183,
      "ā": 184,
      "ă": 185,
      "ą": 186,
      "ć": 187,
      "Č": 188,
      "č": 189,
      "Đ": 190,
      "đ": 191,
      "ē": 192,
      "ė": 193,
      "ę": 194,
      "ě": 195,
      "ĝ": 196,
      "Ğ": 197,
      "ğ": 198,
      "Ġ": 199,
      "ġ": 200,
      "Ģ": 201,
      "ģ": 202,
      "ī": 203,
      "İ": 204,
      "ı": 205,
      "ł": 206,
      "ń": 207,
      "ň": 208,
      "ŋ": 209,
      "ō": 210,
      "ő": 211,
      "œ": 212,
      "ř": 213,
      "ś": 214,
      "Ş": 215,
      "ş": 216,
      "Š": 217,
      "š": 218,
      "ţ": 219,
      "ū": 220,
      "ů": 221,
      "ű": 222,
      "Ÿ": 223,
      "ż": 224,
      "Ž": 225,
      "ž": 226,
      "ƒ": 227,
      "ư": 228,
      "ǧ": 229,
      "ș": 230,
      "ț": 231,
      "ɑ": 232,
      "ə": 233,
      "ɾ": 234,
      "ʹ": 235,
      "ʼ": 236,
      "ʿ": 237,
      "ˆ": 238,
      "˚": 239,
      "˜": 240,
      "ˮ": 241,
      "́": 242,
      "̂": 243,
      "̆": 244,
      "̇": 245,
      "̈": 246,
      "̧": 247,
      "ͼ": 248,
      "Α": 249,
      "Γ": 250,
      "Δ": 251,
      "Ε": 252,
      "Ι": 253,
      "Κ": 254,
      "Λ": 255,
      "Μ": 256,
      "Ν": 257,
      "Ο": 258,
      "Π": 259,
      "Σ": 260,
      "Τ": 261,
      "Φ": 262,
      "Ω": 263,
      "ά": 264,
      "έ": 265,
      "ή": 266,
      "ί": 267,
      "α": 268,
      "β": 269,
      "γ": 270,
      "δ": 271,
      "ε": 272,
      "ζ": 273,
      "η": 274,
      "θ": 275,
      "ι": 276,
      "κ": 277,
      "λ": 278,
      "μ": 279,
      "ν": 280,
      "ξ": 281,
      "ο": 282,
      "π": 283,
      "ρ": 284,
      "ς": 285,
      "σ": 286,
      "τ": 287,
      "υ": 288,
      "φ": 289,
      "χ": 290,
      "ω": 291,
      "ό": 292,
      "ύ": 293,
      "ώ": 294,
      "А": 295,
      "Б": 296,
      "В": 297,
      "Г": 298,
      "Д": 299,
      "Е": 300,
      "Ж": 301,
      "З": 302,
      "И": 303,
      "К": 304,
      "Л": 305,
      "М": 306,
      "Н": 307,
      "О": 308,
      "П": 309,
      "Р": 310,
      "С": 311,
      "Т": 312,
      "У": 313,
      "Ф": 314,
      "Х": 315,
      "Ц": 316,
      "Ч": 317,
      "Ш": 318,
      "Э": 319,
      "Я": 320,
      "а": 321,
      "б": 322,
      "в": 323,
      "г": 324,
      "д": 325,
      "е": 326,
      "ж": 327,
      "з": 328,
      "и": 329,
      "й": 330,
      "к": 331,
      "л": 332,
      "м": 333,
      "н": 334,
      "о": 335,
      "п": 336,
      "р": 337,
      "с": 338,
      "т": 339,
      "у": 340,
      "ф": 341,
      "х": 342,
      "ц": 343,
      "ч": 344,
      "ш": 345,
      "щ": 346,
      "ъ": 347,
      "ы": 348,
      "ь": 349,
      "э": 350,
      "ю": 351,
      "я": 352,
      "ё": 353,
      "є": 354,
      "ѕ": 355,
      "і": 356,
      "ї": 357,
      "қ": 358,
      "ҫ": 359,
      "һ": 360,
      "ә": 361,
      "ԁ": 362,
      "ա": 363,
      "դ": 364,
      "ե": 365,
      "ի": 366,
      "լ": 367,
      "կ": 368,
      "մ": 369,
      "յ": 370,
      "ն": 371,
      "ո": 372,
      "ս": 373,
      "վ": 374,
      "տ": 375,
      "ր": 376,
      "ւ": 377,
      "א": 378,
      "ב": 379,
      "ג": 380,
      "ד": 381,
      "ה": 382,
      "ו": 383,
      "ז": 384,
      "ח": 385,
      "ט": 386,
      "י": 387,
      "כ": 388,
      "ל": 389,
      "ם": 390,
      "מ": 391,
      "ן": 392,
      "נ": 393,
      "ס": 394,
      "ע": 395,
      "פ": 396,
      "צ": 397,
      "ק": 398,
      "ר": 399,
      "ש": 400,
      "ת": 401,
      "،": 402,
      "ء": 403,
      "آ": 404,
      "أ": 405,
      "ؤ": 406,
      "إ": 407,
      "ئ": 408,
      "ا": 409,
      "ب": 410,
      "ة": 411,
      "ت": 412,
      "ث": 413,
      "ج": 414,
      "ح": 415,
      "خ": 416,
      "د": 417,
      "ذ": 418,
      "ر": 419,
      "ز": 420,
      "س": 421,
      "ش": 422,
      "ص": 423,
      "ض": 424,
      "ط": 425,
      "ظ": 426,
      "ع": 427,
      "غ": 428,
      "ـ": 429,
      "ف": 430,
      "ق": 431,
      "ك": 432,
      "ل": 433,
      "م": 434,
      "ن": 435,
      "ه": 436,
      "و": 437,
      "ى": 438,
      "ي": 439,
      "ً": 440,
      "ٌ": 441,
      "ٍ": 442,
      "َ": 443,
      "ُ": 444,
      "ِ": 445,
      "ّ": 446,
      "ْ": 447,
      "٫": 448,
      "ٰ": 449,
      "ٱ": 450,
      "پ": 451,
      "چ": 452,
      "ک": 453,
      "گ": 454,
      "ی": 455,
      "ं": 456,
      "क": 457,
      "त": 458,
      "द": 459,
      "न": 460,
      "प": 461,
      "म": 462,
      "य": 463,
      "र": 464,
      "ल": 465,
      "व": 466,
      "स": 467,
      "ह": 468,
      "ा": 469,
      "ि": 470,
      "ी": 471,
      "े": 472,
      "ो": 473,
      "्": 474,
      "।": 475,
      "ক": 476,
      "ত": 477,
      "দ": 478,
      "ন": 479,
      "প": 480,
      "ব": 481,
      "ম": 482,
      "য": 483,
      "র": 484,
      "ল": 485,
      "স": 486,
      "া": 487,
      "ি": 488,
      "ু": 489,
      "ে": 490,
      "্": 491,
      "য়": 492,
      "க": 493,
      "ி": 494,
      "்": 495,
      "್": 496,
      "ക": 497,
      "ി": 498,
      "്": 499,
      "ก": 500,
      "ค": 501,
      "ง": 502,
      "จ": 503,
      "ช": 504,
      "ด": 505,
      "ต": 506,
      "ท": 507,
      "น": 508,
      "บ": 509,
      "ป": 510,
      "พ": 511,
      "ม": 512,
      "ย": 513,
      "ร": 514,
      "ล": 515,
      "ว": 516,
      "ส": 517,
      "ห": 518,
      "อ": 519,
      "ะ": 520,
      "ั": 521,
      "า": 522,
      "ิ": 523,
      "ี": 524,
      "ุ": 525,
      "เ": 526,
      "แ": 527,
      "ไ": 528,
      "่": 529,
      "้": 530,
      "์": 531,
      "ა": 532,
      "ე": 533,
      "ი": 534,
      "ლ": 535,
      "ო": 536,
      "რ": 537,
      "ს": 538,
      "ᴏ": 539,
      "ḳ": 540,
      "ạ": 541,
      "ả": 542,
      "ấ": 543,
      "ế": 544,
      "ệ": 545,
      "ố": 546,
      "ộ": 547,
      "‐": 548,
      "‑": 549,
      "–": 550,
      "—": 551,
      "―": 552,
      "‘": 553,
      "’": 554,
      "‚": 555,
      "“": 556,
      "”": 557,
      "„": 558,
      "‟": 559,
      "‡": 560,
      "•": 561,
      "․": 562,
      "…": 563,
      "′": 564,
      "″": 565,
      "‹": 566,
      "›": 567,
      "€": 568,
      "₺": 569,
      "℃": 570,
      "№": 571,
      "™": 572,
      "←": 573,
      "↑": 574,
      "→": 575,
      "−": 576,
      "∙": 577,
      "√": 578,
      "≤": 579,
      "≥": 580,
      "⋆": 581,
      "─": 582,
      "█": 583,
      "■": 584,
      "▪": 585,
      "▬": 586,
      "▶": 587,
      "▸": 588,
      "►": 589,
      "▻": 590,
      "▼": 591,
      "●": 592,
      "★": 593,
      "☆": 594,
      "☎": 595,
      "☺": 596,
      "♀": 597,
      "♡": 598,
      "♥": 599,
      "♦": 600,
      "♪": 601,
      "♫": 602,
      "✅": 603,
      "✌": 604,
      "✓": 605,
      "✔": 606,
      "✨": 607,
      "❑": 608,
      "❗": 609,
      "❤": 610,
      "➖": 611,
      "➡": 612,
      "⠀": 613,
      "⭐": 614,
      "、": 615,
      "。": 616,
      "【": 617,
      "】": 618,
      "〰": 619,
      "あ": 620,
      "い": 621,
      "う": 622,
      "お": 623,
      "か": 624,
      "が": 625,
      "き": 626,
      "く": 627,
      "こ": 628,
      "さ": 629,
      "し": 630,
      "す": 631,
      "た": 632,
      "ち": 633,
      "っ": 634,
      "て": 635,
      "で": 636,
      "と": 637,
      "な": 638,
      "に": 639,
      "の": 640,
      "は": 641,
      "ま": 642,
      "み": 643,
      "も": 644,
      "ら": 645,
      "り": 646,
      "る": 647,
      "れ": 648,
      "を": 649,
      "ん": 650,
      "ア": 651,
      "ィ": 652,
      "イ": 653,
      "ウ": 654,
      "エ": 655,
      "オ": 656,
      "カ": 657,
      "キ": 658,
      "ク": 659,
      "グ": 660,
      "コ": 661,
      "サ": 662,
      "シ": 663,
      "ジ": 664,
      "ス": 665,
      "ズ": 666,
      "タ": 667,
      "ダ": 668,
      "チ": 669,
      "ッ": 670,
      "テ": 671,
      "デ": 672,
      "ト": 673,
      "ド": 674,
      "ナ": 675,
      "ニ": 676,
      "バ": 677,
      "パ": 678,
      "フ": 679,
      "ブ": 680,
      "プ": 681,
      "マ": 682,
      "ミ": 683,
      "ム": 684,
      "メ": 685,
      "ャ": 686,
      "ュ": 687,
      "ョ": 688,
      "ラ": 689,
      "リ": 690,
      "ル": 691,
      "レ": 692,
      "ロ": 693,
      "ン": 694,
      "・": 695,
      "ー": 696,
      "ㅋ": 697,
      "一": 698,
      "万": 699,
      "三": 700,
      "上": 701,
      "下": 702,
      "不": 703,
      "世": 704,
      "东": 705,
      "个": 706,
      "中": 707,
      "主": 708,
      "么": 709,
      "乐": 710,
      "买": 711,
      "了": 712,
      "争": 713,
      "二": 714,
      "五": 715,
      "交": 716,
      "京": 717,
      "人": 718,
      "什": 719,
      "今": 720,
      "代": 721,
      "以": 722,
      "件": 723,
      "会": 724,
      "体": 725,
      "作": 726,
      "信": 727,
      "免": 728,
      "全": 729,
      "公": 730,
      "六": 731,
      "内": 732,
      "出": 733,
      "分": 734,
      "划": 735,
      "利": 736,
      "到": 737,
      "势": 738,
      "北": 739,
      "区": 740,
      "十": 741,
      "单": 742,
      "南": 743,
      "县": 744,
      "双": 745,
      "发": 746,
      "可": 747,
      "台": 748,
      "号": 749,
      "司": 750,
      "合": 751,
      "名": 752,
      "吗": 753,
      "和": 754,
      "品": 755,
      "哪": 756,
      "器": 757,
      "四": 758,
      "国": 759,
      "图": 760,
      "在": 761,
      "地": 762,
      "场": 763,
      "址": 764,
      "坛": 765,
      "城": 766,
      "多": 767,
      "大": 768,
      "天": 769,
      "奖": 770,
      "女": 771,
      "好": 772,
      "娱": 773,
      "子": 774,
      "学": 775,
      "安": 776,
      "完": 777,
      "官": 778,
      "定": 779,
      "宝": 780,
      "家": 781,
      "小": 782,
      "少": 783,
      "山": 784,
      "川": 785,
      "工": 786,
      "巧": 787,
      "市": 788,
      "平": 789,
      "年": 790,
      "广": 791,
      "库": 792,
      "开": 793,
      "式": 794,
      "录": 795,
      "彩": 796,
      "影": 797,
      "微": 798,
      "心": 799,
      "快": 800,
      "怎": 801,
      "性": 802,
      "情": 803,
      "成": 804,
      "我": 805,
      "手": 806,
      "技": 807,
      "投": 808,
      "报": 809,
      "排": 810,
      "推": 811,
      "提": 812,
      "搐": 813,
      "数": 814,
      "文": 815,
      "料": 816,
      "新": 817,
      "方": 818,
      "日": 819,
      "时": 820,
      "是": 821,
      "最": 822,
      "月": 823,
      "有": 824,
      "期": 825,
      "本": 826,
      "机": 827,
      "枚": 828,
      "果": 829,
      "正": 830,
      "水": 831,
      "江": 832,
      "法": 833,
      "注": 834,
      "海": 835,
      "港": 836,
      "游": 837,
      "爱": 838,
      "片": 839,
      "版": 840,
      "牌": 841,
      "物": 842,
      "特": 843,
      "玄": 844,
      "王": 845,
      "玩": 846,
      "现": 847,
      "球": 848,
      "理": 849,
      "生": 850,
      "用": 851,
      "电": 852,
      "界": 853,
      "癟": 854,
      "白": 855,
      "的": 856,
      "直": 857,
      "眉": 858,
      "看": 859,
      "県": 860,
      "真": 861,
      "码": 862,
      "神": 863,
      "票": 864,
      "福": 865,
      "站": 866,
      "第": 867,
      "算": 868,
      "系": 869,
      "繹": 870,
      "红": 871,
      "经": 872,
      "结": 873,
      "网": 874,
      "美": 875,
      "群": 876,
      "羹": 877,
      "老": 878,
      "肖": 879,
      "能": 880,
      "自": 881,
      "色": 882,
      "莽": 883,
      "蓷": 884,
      "蓾": 885,
      "蔒": 886,
      "蔞": 887,
      "行": 888,
      "西": 889,
      "覺": 890,
      "规": 891,
      "解": 892,
      "计": 893,
      "记": 894,
      "论": 895,
      "说": 896,
      "谋": 897,
      "费": 898,
      "资": 899,
      "赛": 900,
      "赢": 901,
      "走": 902,
      "车": 903,
      "软": 904,
      "载": 905,
      "道": 906,
      "部": 907,
      "里": 908,
      "重": 909,
      "金": 910,
      "钱": 911,
      "门": 912,
      "集": 913,
      "霸": 914,
      "页": 915,
      "香": 916,
      "马": 917,
      "高": 918,
      "龙": 919,
      "가": 920,
      "고": 921,
      "기": 922,
      "는": 923,
      "다": 924,
      "로": 925,
      "쀀": 926,
      "사": 927,
      "에": 928,
      "을": 929,
      "의": 930,
      "이": 931,
      "지": 932,
      "하": 933,
      "한": 934,
      "ﬁ": 935,
      "ﬂ": 936,
      "﴾": 937,
      "﴿": 938,
      "️": 939,
      "！": 940,
      "（": 941,
      "）": 942,
      "，": 943,
      "：": 944,
      "🇷": 945,
      "🇹": 946,
      "🌟": 947,
      "🌸": 948,
      "🌹": 949,
      "🌺": 950,
      "🌼": 951,
      "🌿": 952,
      "🍀": 953,
      "🍁": 954,
      "🍃": 955,
      "🎀": 956,
      "🎁": 957,
      "🎈": 958,
      "🏻": 959,
      "🏼": 960,
      "👇": 961,
      "👈": 962,
      "👉": 963,
      "👌": 964,
      "👍": 965,
      "👏": 966,
      "💃": 967,
      "💐": 968,
      "💕": 969,
      "💖": 970,
      "💗": 971,
      "💙": 972,
      "💜": 973,
      "💞": 974,
      "💥": 975,
      "💪": 976,
      "💫": 977,
      "📌": 978,
      "📍": 979,
      "📞": 980,
      "📲": 981,
      "🔥": 982,
      "🔹": 983,
      "😀": 984,
      "😁": 985,
      "😂": 986,
      "😃": 987,
      "😄": 988,
      "😅": 989,
      "😇": 990,
      "😉": 991,
      "😊": 992,
      "😋": 993,
      "😍": 994,
      "😎": 995,
      "😔": 996,
      "😘": 997,
      "😛": 998,
      "🙁": 999,
      "🙂": 1000,
      "🙈": 1001,
      "🙋": 1002,
      "🙏": 1003,
      "🤗": 1004,
      "##d": 1005,
      "##a": 1006,
      "##k": 1007,
      "##l": 1008,
      "##n": 1009,
      "##Ä": 1010,
      "##±": 1011,
      "##λ": 1012,
      "##ο": 1013,
      "##υ": 1014,
      "##τ": 1015,
      "##α": 1016,
      "##μ": 1017,
      "##ι": 1018,
      "##ν": 1019,
      "##κ": 1020,
      "##ό": 1021,
      "##s": 1022,
      "##t": 1023,
      "##i": 1024,
      "##e": 1025,
      "##ş": 1026,
      "##m": 1027,
      "##r": 1028,
      "##v": 1029,
      "##u": 1030,
      "##c": 1031,
      "##y": 1032,
      "##o": 1033,
      "##g": 1034,
      "##’": 1035,
      "##U": 1036,
      "##N": 1037,
      "##L": 1038,
      "##A": 1039,
      "##M": 1040,
      "##D": 1041,
      "##I": 1042,
      "##…": 1043,
      "##η": 1044,
      "##ρ": 1045,
      "##γ": 1046,
      "##е": 1047,
      "##ı": 1048,
      "##é": 1049,
      "##z": 1050,
      "##S": 1051,
      "##H": 1052,
      "##b": 1053,
      "##p": 1054,
      "##h": 1055,
      "##о": 1056,
      "##с": 1057,
      "##ь": 1058,
      "##ü": 1059,
      "##9": 1060,
      "##0": 1061,
      "##6": 1062,
      "##3": 1063,
      "##Д": 1064,
      "##ğ": 1065,
      "##f": 1066,
      "##ç": 1067,
      "##»": 1068,
      "##Ö": 1069,
      "##T": 1070,
      "##E": 1071,
      "##R": 1072,
      "##B": 1073,
      "##İ": 1074,
      "##ý": 1075,
      "##“": 1076,
      "##1": 1077,
      "##C": 1078,
      "##”": 1079,
      "##ö": 1080,
      "##‘": 1081,
      "##ę": 1082,
      "##K": 1083,
      "##O": 1084,
      "##j": 1085,
      "##2": 1086,
      "##8": 1087,
      "##„": 1088,
      "##î": 1089,
      "##ģ": 1090,
      "##G": 1091,
      "##5": 1092,
      "##Ü": 1093,
      "##V": 1094,
      "##̈": 1095,
      "##x": 1096,
      "##р": 1097,
      "##у": 1098,
      "##п": 1099,
      "##н": 1100,
      "##й": 1101,
      "##ш": 1102,
      "##и": 1103,
      "##đ": 1104,
      "##Ş": 1105,
      "##7": 1106,
      "##w": 1107,
      "##q": 1108,
      "##к": 1109,
      "##в": 1110,
      "##🎁": 1111,
      "##̆": 1112,
      "##Ğ": 1113,
      "##ș": 1114,
      "##â": 1115,
      "##文": 1116,
      "##Y": 1117,
      "##ς": 1118,
      "##4": 1119,
      "##市": 1120,
      "##南": 1121,
      "##区": 1122,
      "##þ": 1123,
      "##れ": 1124,
      "##す": 1125,
      "##い": 1126,
      "##X": 1127,
      "##Ç": 1128,
      "##年": 1129,
      "##中": 1130,
      "##法": 1131,
      "##P": 1132,
      "##Ã": 1133,
      "##¼": 1134,
      "##а": 1135,
      "##ξ": 1136,
      "##ε": 1137,
      "##ί": 1138,
      "##σ": 1139,
      "##—": 1140,
      "##г": 1141,
      "##д": 1142,
      "##э": 1143,
      "##т": 1144,
      "##ɾ": 1145,
      "##€": 1146,
      "##ð": 1147,
      "##票": 1148,
      "##娱": 1149,
      "##乐": 1150,
      "##平": 1151,
      "##台": 1152,
      "##χ": 1153,
      "##θ": 1154,
      "##π": 1155,
      "##F": 1156,
      "##ي": 1157,
      "##ت": 1158,
      "##ق": 1159,
      "##ب": 1160,
      "##ل": 1161,
      "##ḳ": 1162,
      "##Z": 1163,
      "##¾": 1164,
      "##و": 1165,
      "##ش": 1166,
      "##ن": 1167,
      "##і": 1168,
      "##ò": 1169,
      "##Q": 1170,
      "##´": 1171,
      "##💥": 1172,
      "##天": 1173,
      "##赢": 1174,
      "##彩": 1175,
      "##大": 1176,
      "##神": 1177,
      "##推": 1178,
      "##А": 1179,
      "##Н": 1180,
      "##Т": 1181,
      "##–": 1182,
      "##″": 1183,
      "##Â": 1184,
      "##û": 1185,
      "##ű": 1186,
      "##💕": 1187,
      "##ّ": 1188,
      "##َ": 1189,
      "##ف": 1190,
      "##ٌ": 1191,
      "##ø": 1192,
      "##Ÿ": 1193,
      "##§": 1194,
      "##利": 1195,
      "##色": 1196,
      "##W": 1197,
      "##ţ": 1198,
      "##时": 1199,
      "##代": 1200,
      "##理": 1201,
      "##õ": 1202,
      "##б": 1203,
      "##м": 1204,
      "##ю": 1205,
      "##ă": 1206,
      "##¦": 1207,
      "##˜": 1208,
      "##™": 1209,
      "##J": 1210,
      "##ū": 1211,
      "##😊": 1212,
      "##¨": 1213,
      "##̧": 1214,
      "##ä": 1215,
      "##😄": 1216,
      "##л": 1217,
      "##ố": 1218,
      "##로": 1219,
      "##з": 1220,
      "##د": 1221,
      "##ф": 1222,
      "##х": 1223,
      "##ѕ": 1224,
      "##ï": 1225,
      "##¿": 1226,
      "##½": 1227,
      "##¶": 1228,
      "##信": 1229,
      "##上": 1230,
      "##群": 1231,
      "##á": 1232,
      "##ě": 1233,
      "##ম": 1234,
      "##ক": 1235,
      "##া": 1236,
      "##ラ": 1237,
      "##ン": 1238,
      "##・": 1239,
      "##リ": 1240,
      "##ア": 1241,
      "##ル": 1242,
      "##я": 1243,
      "##í": 1244,
      "##ú": 1245,
      "##›": 1246,
      "##在": 1247,
      "##•": 1248,
      "##ê": 1249,
      "##➡": 1250,
      "##ñ": 1251,
      "##计": 1252,
      "##划": 1253,
      "##软": 1254,
      "##件": 1255,
      "##下": 1256,
      "##载": 1257,
      "##מ": 1258,
      "##ט": 1259,
      "##ב": 1260,
      "##ח": 1261,
      "##ж": 1262,
      "##°": 1263,
      "##£": 1264,
      "##า": 1265,
      "##ด": 1266,
      "##ก": 1267,
      "##ล": 1268,
      "##ม": 1269,
      "##😋": 1270,
      "##¯": 1271,
      "##Í": 1272,
      "##ー": 1273,
      "##ブ": 1274,
      "##Å": 1275,
      "##►": 1276,
      "##ß": 1277,
      "##Ġ": 1278,
      "##注": 1279,
      "##地": 1280,
      "##址": 1281,
      "##ו": 1282,
      "##ס": 1283,
      "##י": 1284,
      "##ק": 1285,
      "##א": 1286,
      "##ת": 1287,
      "##ا": 1288,
      "##ص": 1289,
      "##ع": 1290,
      "##钱": 1291,
      "##的": 1292,
      "##物": 1293,
      "##是": 1294,
      "##什": 1295,
      "##么": 1296,
      "##生": 1297,
      "##肖": 1298,
      "##‚": 1299,
      "##ā": 1300,
      "##Ý": 1301,
      "##ї": 1302,
      "##ر": 1303,
      "##ز": 1304,
      "##̇": 1305,
      "##ə": 1306,
      "##è": 1307,
      "##ц": 1308,
      "##ó": 1309,
      "##®": 1310,
      "##¤": 1311,
      "##ч": 1312,
      "##Ģ": 1313,
      "##ک": 1314,
      "##«": 1315,
      "##ô": 1316,
      "##メ": 1317,
      "##カ": 1318,
      "##サ": 1319,
      "##º": 1320,
      "##ة": 1321,
      "##्": 1322,
      "##र": 1323,
      "##द": 1324,
      "##न": 1325,
      "##ा": 1326,
      "##म": 1327,
      "##य": 1328,
      "##े": 1329,
      "##ᴏ": 1330,
      "##ъ": 1331,
      "##ɑ": 1332,
      "##다": 1333,
      "##ி": 1334,
      "##்": 1335,
      "##¬": 1336,
      "##‟": 1337,
      "##š": 1338,
      "##ك": 1339,
      "##ר": 1340,
      "##ן": 1341,
      "##ِ": 1342,
      "##ه": 1343,
      "##م": 1344,
      "##ْ": 1345,
      "##ī": 1346,
      "##は": 1347,
      "##お": 1348,
      "##に": 1349,
      "##œ": 1350,
      "##り": 1351,
      "##ד": 1352,
      "##☺": 1353,
      "##️": 1354,
      "##ы": 1355,
      "##ր": 1356,
      "##տ": 1357,
      "##ա": 1358,
      "##ս": 1359,
      "##ն": 1360,
      "##ե": 1361,
      "##լ": 1362,
      "##ج": 1363,
      "##ُ": 1364,
      "##特": 1365,
      "##王": 1366,
      "##日": 1367,
      "##报": 1368,
      "##全": 1369,
      "##图": 1370,
      "##ئ": 1371,
      "##Þ": 1372,
      "##😀": 1373,
      "##😉": 1374,
      "##′": 1375,
      "##ͼ": 1376,
      "##վ": 1377,
      "##−": 1378,
      "##ط": 1379,
      "##س": 1380,
      "##ی": 1381,
      "##ˮ": 1382,
      "##×": 1383,
      "##さ": 1384,
      "##Ι": 1385,
      "##Γ": 1386,
      "##Α": 1387,
      "##‑": 1388,
      "##Ε": 1389,
      "##Ω": 1390,
      "##Ν": 1391,
      "##Σ": 1392,
      "##Τ": 1393,
      "##ু": 1394,
      "##দ": 1395,
      "##ে": 1396,
      "##ә": 1397,
      "##✌": 1398,
      "##ע": 1399,
      "##😍": 1400,
      "##ύ": 1401,
      "##Î": 1402,
      "##み": 1403,
      "##ù": 1404,
      "##ō": 1405,
      "##ά": 1406,
      "##ή": 1407,
      "##¡": 1408,
      "##ł": 1409,
      "##♫": 1410,
      "##ト": 1411,
      "##グ": 1412,
      "##レ": 1413,
      "##ナ": 1414,
      "##デ": 1415,
      "##ィ": 1416,
      "##体": 1417,
      "##ุ": 1418,
      "##พ": 1419,
      "##น": 1420,
      "##แ": 1421,
      "##้": 1422,
      "##ว": 1423,
      "##🌟": 1424,
      "##₺": 1425,
      "##‐": 1426,
      "##،": 1427,
      "##ح": 1428,
      "##ค": 1429,
      "##์": 1430,
      "##เ": 1431,
      "##จ": 1432,
      "##号": 1433,
      "##の": 1434,
      "##子": 1435,
      "##ë": 1436,
      "##🏼": 1437,
      "##❤": 1438,
      "##آ": 1439,
      "##ż": 1440,
      "##码": 1441,
      "##单": 1442,
      "##双": 1443,
      "##🙏": 1444,
      "##💗": 1445,
      "##分": 1446,
      "##チ": 1447,
      "##用": 1448,
      "##パ": 1449,
      "##ã": 1450,
      "##å": 1451,
      "##¸": 1452,
      "##æ": 1453,
      "##à": 1454,
      "##һ": 1455,
      "##Ф": 1456,
      "##ﬂ": 1457,
      "##사": 1458,
      "##Ó": 1459,
      "##覺": 1460,
      "##テ": 1461,
      "##合": 1462,
      "##心": 1463,
      "##水": 1464,
      "##网": 1465,
      "##č": 1466,
      "##莽": 1467,
      "##谋": 1468,
      "##ì": 1469,
      "##¥": 1470,
      "##页": 1471,
      "##δ": 1472,
      "##ώ": 1473,
      "##ً": 1474,
      "##÷": 1475,
      "##گ": 1476,
      "##ġ": 1477,
      "##玄": 1478,
      "##机": 1479,
      "##（": 1480,
      "##）": 1481,
      "##开": 1482,
      "##奖": 1483,
      "##结": 1484,
      "##果": 1485,
      "##马": 1486,
      "##经": 1487,
      "##一": 1488,
      "##ى": 1489,
      "##四": 1490,
      "##有": 1491,
      "##多": 1492,
      "##少": 1493,
      "##อ": 1494,
      "##ง": 1495,
      "##ส": 1496,
      "##ี": 1497,
      "##บ": 1498,
      "##ร": 1499,
      "##ะ": 1500,
      "##ท": 1501,
      "##่": 1502,
      "##ป": 1503,
      "##ย": 1504,
      "##ต": 1505,
      "##ั": 1506,
      "##ț": 1507,
      "##ř": 1508,
      "##ス": 1509,
      "##マ": 1510,
      "##ث": 1511,
      "##情": 1512,
      "##小": 1513,
      "##说": 1514,
      "##不": 1515,
      "##】": 1516,
      "##シ": 1517,
      "##ョ": 1518,
      "##ダ": 1519,
      "##バ": 1520,
      "##ッ": 1521,
      "##³": 1522,
      "##پ": 1523,
      "##ა": 1524,
      "##京": 1525,
      "##赛": 1526,
      "##车": 1527,
      "##©": 1528,
      "##إ": 1529,
      "##。": 1530,
      "##이": 1531,
      "##👍": 1532,
      "##😎": 1533,
      "##キ": 1534,
      "##免": 1535,
      "##费": 1536,
      "##资": 1537,
      "##料": 1538,
      "##解": 1539,
      "##ń": 1540,
      "##ć": 1541,
      "##港": 1542,
      "##Л": 1543,
      "##🍁": 1544,
      "##ė": 1545,
      "##霸": 1546,
      "##ـ": 1547,
      "##ض": 1548,
      "##ʹ": 1549,
      "##ƒ": 1550,
      "##щ": 1551,
      "##品": 1552,
      "##牌": 1553,
      "##ő": 1554,
      "##մ": 1555,
      "##ո": 1556,
      "##կ": 1557,
      "##门": 1558,
      "##库": 1559,
      "##か": 1560,
      "##家": 1561,
      "##国": 1562,
      "##二": 1563,
      "##癟": 1564,
      "##ム": 1565,
      "##ウ": 1566,
      "##յ": 1567,
      "##ג": 1568,
      "##ם": 1569,
      "##έ": 1570,
      "##ω": 1571,
      "##¢": 1572,
      "##ą": 1573,
      "##क": 1574,
      "##स": 1575,
      "##ž": 1576,
      "##站": 1577,
      "##ジ": 1578,
      "##ュ": 1579,
      "##性": 1580,
      "##真": 1581,
      "##→": 1582,
      "##🏻": 1583,
      "##电": 1584,
      "##影": 1585,
      "##集": 1586,
      "##의": 1587,
      "##投": 1588,
      "##到": 1589,
      "##，": 1590,
      "##行": 1591,
      "##能": 1592,
      "##系": 1593,
      "##ů": 1594,
      "##、": 1595,
      "##가": 1596,
      "##ĝ": 1597,
      "##צ": 1598,
      "##ה": 1599,
      "##·": 1600,
      "##В": 1601,
      "##М": 1602,
      "##У": 1603,
      "##Р": 1604,
      "##Э": 1605,
      "##ˆ": 1606,
      "##¹": 1607,
      "##【": 1608,
      "##ộ": 1609,
      "##方": 1610,
      "##香": 1611,
      "##会": 1612,
      "##女": 1613,
      "##数": 1614,
      "##美": 1615,
      "##人": 1616,
      "##을": 1617,
      "##月": 1618,
      "##海": 1619,
      "##്": 1620,
      "##ി": 1621,
      "##غ": 1622,
      "##‹": 1623,
      "##あ": 1624,
      "##る": 1625,
      "##ē": 1626,
      "##Đ": 1627,
      "##羹": 1628,
      "##É": 1629,
      "##👏": 1630,
      "##🌿": 1631,
      "##²": 1632,
      "##し": 1633,
      "##★": 1634,
      "##プ": 1635,
      "##争": 1636,
      "##提": 1637,
      "##现": 1638,
      "##タ": 1639,
      "##Č": 1640,
      "##县": 1641,
      "##最": 1642,
      "##新": 1643,
      "##ÿ": 1644,
      "##🤗": 1645,
      "##√": 1646,
      "##Е": 1647,
      "##快": 1648,
      "##吗": 1649,
      "##ი": 1650,
      "##რ": 1651,
      "##算": 1652,
      "##ԁ": 1653,
      "##😘": 1654,
      "##白": 1655,
      "##ไ": 1656,
      "##ห": 1657,
      "##和": 1658,
      "##好": 1659,
      "##ე": 1660,
      "##ს": 1661,
      "##ლ": 1662,
      "##פ": 1663,
      "##№": 1664,
      "##三": 1665,
      "##手": 1666,
      "##看": 1667,
      "##记": 1668,
      "##录": 1669,
      "##О": 1670,
      "##Б": 1671,
      "##😁": 1672,
      "##ズ": 1673,
      "##ク": 1674,
      "##ذ": 1675,
      "##正": 1676,
      "##版": 1677,
      "##が": 1678,
      "##う": 1679,
      "##ん": 1680,
      "##ち": 1681,
      "##と": 1682,
      "##く": 1683,
      "##ら": 1684,
      "##っ": 1685,
      "##て": 1686,
      "##👈": 1687,
      "##哪": 1688,
      "##フ": 1689,
      "##🌹": 1690,
      "##爱": 1691,
      "##ŋ": 1692,
      "##ช": 1693,
      "##β": 1694,
      "##💐": 1695,
      "##期": 1696,
      "##も": 1697,
      "##ロ": 1698,
      "##🇷": 1699,
      "##工": 1700,
      "##✅": 1701,
      "##✔": 1702,
      "##С": 1703,
      "##本": 1704,
      "##🍀": 1705,
      "##🙋": 1706,
      "##♀": 1707,
      "##♥": 1708,
      "##论": 1709,
      "##Ο": 1710,
      "##أ": 1711,
      "##ま": 1712,
      "##道": 1713,
      "##্": 1714,
      "##র": 1715,
      "##́": 1716,
      "##规": 1717,
      "##公": 1718,
      "##式": 1719,
      "##●": 1720,
      "##하": 1721,
      "##는": 1722,
      "##北": 1723,
      "##了": 1724,
      "##作": 1725,
      "##ё": 1726,
      "##Ц": 1727,
      "##П": 1728,
      "##我": 1729,
      "##以": 1730,
      "##可": 1731,
      "##ャ": 1732,
      "##司": 1733,
      "##خ": 1734,
      "##发": 1735,
      "##官": 1736,
      "##广": 1737,
      "##出": 1738,
      "##安": 1739,
      "##龙": 1740,
      "##怎": 1741,
      "##প": 1742,
      "##ন": 1743,
      "##ি": 1744,
      "##ी": 1745,
      "##ि": 1746,
      "##主": 1747,
      "##名": 1748,
      "##য়": 1749,
      "##Ð": 1750,
      "##И": 1751,
      "##К": 1752,
      "##Ì": 1753,
      "##‡": 1754,
      "##স": 1755,
      "##金": 1756,
      "##க": 1757,
      "##נ": 1758,
      "##ल": 1759,
      "##ह": 1760,
      "##👇": 1761,
      "##ҫ": 1762,
      "##դ": 1763,
      "##で": 1764,
      "##φ": 1765,
      "##ś": 1766,
      "##ի": 1767,
      "##고": 1768,
      "##🎀": 1769,
      "##游": 1770,
      "##：": 1771,
      "##✨": 1772,
      "##玩": 1773,
      "##😂": 1774,
      "##球": 1775,
      "##❗": 1776,
      "##ש": 1777,
      "##👌": 1778,
      "##Ï": 1779,
      "##た": 1780,
      "##̂": 1781,
      "##כ": 1782,
      "##ל": 1783,
      "##ʼ": 1784,
      "##ニ": 1785,
      "##繹": 1786,
      "##な": 1787,
      "##त": 1788,
      "##定": 1789,
      "##Π": 1790,
      "##个": 1791,
      "##直": 1792,
      "##ؤ": 1793,
      "##Ч": 1794,
      "##走": 1795,
      "##世": 1796,
      "##东": 1797,
      "##▬": 1798,
      "##Я": 1799,
      "##宝": 1800,
      "##💖": 1801,
      "##ミ": 1802,
      "##里": 1803,
      "##ả": 1804,
      "##イ": 1805,
      "##ٍ": 1806,
      "##﴿": 1807,
      "##☎": 1808,
      "##지": 1809,
      "##에": 1810,
      "##坛": 1811,
      "##界": 1812,
      "##こ": 1813,
      "##き": 1814,
      "##技": 1815,
      "##Х": 1816,
      "##기": 1817,
      "##व": 1818,
      "##Ш": 1819,
      "##ւ": 1820,
      "##オ": 1821,
      "##万": 1822,
      "##🌸": 1823,
      "##―": 1824,
      "##🎈": 1825,
      "##ド": 1826,
      "##福": 1827,
      "##势": 1828,
      "##エ": 1829,
      "##买": 1830,
      "##ิ": 1831,
      "##є": 1832,
      "##今": 1833,
      "##を": 1834,
      "##ז": 1835,
      "##ল": 1836,
      "##十": 1837,
      "##巧": 1838,
      "##Ê": 1839,
      "##🙂": 1840,
      "##老": 1841,
      "##ň": 1842,
      "##Û": 1843,
      "##ζ": 1844,
      "##Δ": 1845,
      "##コ": 1846,
      "##≤": 1847,
      "##交": 1848,
      "##成": 1849,
      "##💙": 1850,
      "##西": 1851,
      "##Г": 1852,
      "##片": 1853,
      "##江": 1854,
      "##ო": 1855,
      "##学": 1856,
      "##六": 1857,
      "##高": 1858,
      "##自": 1859,
      "##Λ": 1860,
      "##Μ": 1861,
      "##💪": 1862,
      "##ٰ": 1863,
      "##ٱ": 1864,
      "##五": 1865,
      "##内": 1866,
      "##🙈": 1867,
      "##川": 1868,
      "##器": 1869,
      "##З": 1870,
      "##Ж": 1871,
      "##ত": 1872,
      "##प": 1873,
      "##🇹": 1874,
      "##ﬁ": 1875,
      "##한": 1876,
      "##💫": 1877,
      "##山": 1878,
      "##👉": 1879,
      "##چ": 1880,
      "##✓": 1881,
      "##ं": 1882,
      "##µ": 1883,
      "##💜": 1884,
      "##场": 1885,
      "##ظ": 1886,
      "##😔": 1887,
      "##🌺": 1888,
      "##қ": 1889,
      "##☆": 1890,
      "##😇": 1891,
      "##ʿ": 1892,
      "##城": 1893,
      "##！": 1894,
      "##ব": 1895,
      "##್": 1896,
      "##第": 1897,
      "##য": 1898,
      "##ो": 1899,
      "##Á": 1900,
      "##Æ": 1901,
      "##微": 1902,
      "##ء": 1903,
      "##Φ": 1904,
      "##🌼": 1905,
      "##💞": 1906,
      "##ấ": 1907,
      "##枚": 1908,
      "##Ø": 1909,
      "##🍃": 1910,
      "##〰": 1911,
      "##।": 1912,
      "##部": 1913,
      "##─": 1914,
      "##💃": 1915,
      "##ക": 1916,
      "##˚": 1917,
      "##≥": 1918,
      "##ǧ": 1919,
      "##Κ": 1920,
      "##♦": 1921,
      "##ㅋ": 1922,
      "##█": 1923,
      "##红": 1924,
      "##😅": 1925,
      "##重": 1926,
      "##Ž": 1927,
      "##♡": 1928,
      "##Š": 1929,
      "##完": 1930,
      "##😃": 1931,
      "##眉": 1932,
      "##⠀": 1933,
      "##℃": 1934,
      "##﴾": 1935,
      "##😛": 1936,
      "##ế": 1937,
      "##⭐": 1938,
      "##٫": 1939,
      "##ệ": 1940,
      "##県": 1941,
      "##▪": 1942,
      "##📲": 1943,
      "##♪": 1944,
      "##📌": 1945,
      "##🙁": 1946,
      "##排": 1947,
      "##ª": 1948,
      "##ư": 1949,
      "##↑": 1950,
      "##📞": 1951,
      "##∙": 1952,
      "##🔥": 1953,
      "##📍": 1954,
      "##▼": 1955,
      "##ạ": 1956,
      "##▶": 1957,
      "##■": 1958,
      "##蔒": 1959,
      "##蓷": 1960,
      "##▻": 1961,
      "##🔹": 1962,
      "##⋆": 1963,
      "##․": 1964,
      "##➖": 1965,
      "##←": 1966,
      "##쀀": 1967,
      "##蓾": 1968,
      "##蔞": 1969,
      "##▸": 1970,
      "##la": 1971,
      "##er": 1972,
      "##in": 1973,
      "##an": 1974,
      "##en": 1975,
      "##ın": 1976,
      "##ir": 1977,
      "##ar": 1978,
      "##il": 1979,
      "##lar": 1980,
      "##ma": 1981,
      "##ek": 1982,
      "##el": 1983,
      "##ak": 1984,
      "##le": 1985,
      "##da": 1986,
      "##un": 1987,
      "##de": 1988,
      "##or": 1989,
      "##ler": 1990,
      "##lı": 1991,
      "ve": 1992,
      "##iy": 1993,
      "##et": 1994,
      "##im": 1995,
      "bir": 1996,
      "##es": 1997,
      "##iz": 1998,
      "##on": 1999,
      "##ik": 2000,
      "##at": 2001,
      "##ur": 2002,
      "##ay": 2003,
      "##ır": 2004,
      "##lan": 2005,
      "##as": 2006,
      "##ün": 2007,
      "##al": 2008,
      "##em": 2009,
      "ya": 2010,
      "##is": 2011,
      "de": 2012,
      "ol": 2013,
      "##ul": 2014,
      "##ür": 2015,
      "##di": 2016,
      "##am": 2017,
      "##ey": 2018,
      "##dı": 2019,
      "##iş": 2020,
      "##aş": 2021,
      "##it": 2022,
      "##ah": 2023,
      "##um": 2024,
      "##den": 2025,
      "##ların": 2026,
      "##ım": 2027,
      "##ız": 2028,
      "##ya": 2029,
      "##dan": 2030,
      "##li": 2031,
      "iç": 2032,
      "##st": 2033,
      "ka": 2034,
      "##ıl": 2035,
      "gö": 2036,
      "##ları": 2037,
      "##ok": 2038,
      "##ağ": 2039,
      "##ık": 2040,
      "##ini": 2041,
      "##ış": 2042,
      "##ab": 2043,
      "##az": 2044,
      "##du": 2045,
      "##ında": 2046,
      "yap": 2047,
      "bu": 2048,
      "##ine": 2049,
      "##ol": 2050,
      "##ec": 2051,
      "##inde": 2052,
      "ar": 2053,
      "da": 2054,
      "##ta": 2055,
      "##ük": 2056,
      "##yor": 2057,
      "için": 2058,
      "##mas": 2059,
      "##iyor": 2060,
      "##esi": 2061,
      "##mak": 2062,
      "##ti": 2063,
      "##üz": 2064,
      "##leri": 2065,
      "##üm": 2066,
      "##dir": 2067,
      "##ev": 2068,
      "##iler": 2069,
      "##eler": 2070,
      "##tı": 2071,
      "##te": 2072,
      "##ını": 2073,
      "ile": 2074,
      "##cak": 2075,
      "gör": 2076,
      "##dır": 2077,
      "##me": 2078,
      "##ra": 2079,
      "##lık": 2080,
      "baş": 2081,
      "##inin": 2082,
      "et": 2083,
      "##uş": 2084,
      "an": 2085,
      "##uz": 2086,
      "##ği": 2087,
      "al": 2088,
      "##bil": 2089,
      "##ce": 2090,
      "in": 2091,
      "##iye": 2092,
      "##mek": 2093,
      "son": 2094,
      "##ut": 2095,
      "kar": 2096,
      "##oğ": 2097,
      "ver": 2098,
      "gel": 2099,
      "##eç": 2100,
      "##ına": 2101,
      "##lik": 2102,
      "ger": 2103,
      "bil": 2104,
      "##ğı": 2105,
      "##us": 2106,
      "ön": 2107,
      "##uk": 2108,
      "##ön": 2109,
      "il": 2110,
      "oldu": 2111,
      "##tir": 2112,
      "##üş": 2113,
      "##len": 2114,
      "##ara": 2115,
      "##ıs": 2116,
      "##larak": 2117,
      "kon": 2118,
      "##alı": 2119,
      "##ib": 2120,
      "ed": 2121,
      "değ": 2122,
      "Bu": 2123,
      "##unu": 2124,
      "##ez": 2125,
      "##iniz": 2126,
      "en": 2127,
      "ay": 2128,
      "##cı": 2129,
      "##ması": 2130,
      "##man": 2131,
      "iş": 2132,
      "olarak": 2133,
      "##tır": 2134,
      "##ro": 2135,
      "##ip": 2136,
      "##öy": 2137,
      "##se": 2138,
      "##anı": 2139,
      "çok": 2140,
      "##aha": 2141,
      "ne": 2142,
      "ist": 2143,
      "##ından": 2144,
      "##ca": 2145,
      "20": 2146,
      "yer": 2147,
      "##ül": 2148,
      "##mış": 2149,
      "##ürk": 2150,
      "##tan": 2151,
      "##laş": 2152,
      "##ed": 2153,
      "olan": 2154,
      "##lay": 2155,
      "kad": 2156,
      "##ap": 2157,
      "##av": 2158,
      "##eni": 2159,
      "##ası": 2160,
      "##op": 2161,
      "##lama": 2162,
      "##ka": 2163,
      "bul": 2164,
      "##miş": 2165,
      "var": 2166,
      "olduğ": 2167,
      "##lu": 2168,
      "##ibi": 2169,
      "##ki": 2170,
      "daha": 2171,
      "##ör": 2172,
      "gün": 2173,
      "##yon": 2174,
      "or": 2175,
      "aç": 2176,
      "##imiz": 2177,
      "Türk": 2178,
      "##om": 2179,
      "yıl": 2180,
      "##üy": 2181,
      "kur": 2182,
      "her": 2183,
      "##aki": 2184,
      "##ının": 2185,
      "##ecek": 2186,
      "##ılı": 2187,
      "##eş": 2188,
      "##eki": 2189,
      "kul": 2190,
      "sür": 2191,
      "##ih": 2192,
      "##zer": 2193,
      "##ili": 2194,
      "##ece": 2195,
      "##isi": 2196,
      "##alış": 2197,
      "##bilir": 2198,
      "çık": 2199,
      "gibi": 2200,
      "geç": 2201,
      "bel": 2202,
      "on": 2203,
      "##ad": 2204,
      "##ken": 2205,
      "##aman": 2206,
      "##san": 2207,
      "##lerin": 2208,
      "##öyle": 2209,
      "kullan": 2210,
      "uy": 2211,
      "ken": 2212,
      "##sa": 2213,
      "##ret": 2214,
      "yaş": 2215,
      "çalış": 2216,
      "##ıyor": 2217,
      "##yla": 2218,
      "yar": 2219,
      "kadar": 2220,
      "gerek": 2221,
      "An": 2222,
      "##eye": 2223,
      "##ic": 2224,
      "##ru": 2225,
      "##ama": 2226,
      "##let": 2227,
      "##unda": 2228,
      "##üt": 2229,
      "##af": 2230,
      "##os": 2231,
      "##leş": 2232,
      "##eli": 2233,
      "##diğ": 2234,
      "kal": 2235,
      "##eh": 2236,
      "##ımız": 2237,
      "##lü": 2238,
      "##ilen": 2239,
      "##ers": 2240,
      "##aya": 2241,
      "##ilm": 2242,
      "üzer": 2243,
      "olma": 2244,
      "ben": 2245,
      "##’n": 2246,
      "##larını": 2247,
      "zaman": 2248,
      "##lara": 2249,
      "##ist": 2250,
      "ola": 2251,
      "##lem": 2252,
      "##ark": 2253,
      "düş": 2254,
      "##daki": 2255,
      "öz": 2256,
      "##dığ": 2257,
      "##öz": 2258,
      "##id": 2259,
      "##iyle": 2260,
      "##eb": 2261,
      "ama": 2262,
      "bulun": 2263,
      "sor": 2264,
      "##ter": 2265,
      "sa": 2266,
      "sağ": 2267,
      "ek": 2268,
      "##cağ": 2269,
      "tek": 2270,
      "##iyet": 2271,
      "##inden": 2272,
      "##met": 2273,
      "##şı": 2274,
      "##oy": 2275,
      "kay": 2276,
      "tar": 2277,
      "yön": 2278,
      "##gi": 2279,
      "dur": 2280,
      "Bir": 2281,
      "##iç": 2282,
      "yan": 2283,
      "##men": 2284,
      "##dım": 2285,
      "say": 2286,
      "yaz": 2287,
      "sonra": 2288,
      "##öl": 2289,
      "Baş": 2290,
      "##üyük": 2291,
      "top": 2292,
      "##tur": 2293,
      "##araf": 2294,
      "201": 2295,
      "##ren": 2296,
      "##unun": 2297,
      "##asında": 2298,
      "oy": 2299,
      "##cu": 2300,
      "dev": 2301,
      "##ınız": 2302,
      "şey": 2303,
      "##abil": 2304,
      "##arı": 2305,
      "değil": 2306,
      "##uy": 2307,
      "pro": 2308,
      "taraf": 2309,
      "##gu": 2310,
      "##ep": 2311,
      "kat": 2312,
      "##ılan": 2313,
      "##ğer": 2314,
      "##if": 2315,
      "##dığı": 2316,
      "##yi": 2317,
      "doğ": 2318,
      "Türkiye": 2319,
      "dön": 2320,
      "gü": 2321,
      "##ot": 2322,
      "el": 2323,
      "##ten": 2324,
      "##ede": 2325,
      "##ans": 2326,
      "##larda": 2327,
      "##imi": 2328,
      "##ci": 2329,
      "##maya": 2330,
      "kap": 2331,
      "ak": 2332,
      "##deki": 2333,
      "sah": 2334,
      "##art": 2335,
      "##ana": 2336,
      "##eri": 2337,
      "öğ": 2338,
      "hay": 2339,
      "##lam": 2340,
      "##arak": 2341,
      "ise": 2342,
      "belir": 2343,
      "##çek": 2344,
      "yüz": 2345,
      "##aç": 2346,
      "hak": 2347,
      "ev": 2348,
      "yak": 2349,
      "den": 2350,
      "##diği": 2351,
      "##dür": 2352,
      "##lerini": 2353,
      "##sun": 2354,
      "şek": 2355,
      "##ada": 2356,
      "alan": 2357,
      "##lk": 2358,
      "siz": 2359,
      "yeni": 2360,
      "##lat": 2361,
      "karşı": 2362,
      "tak": 2363,
      "##una": 2364,
      "##erek": 2365,
      "hal": 2366,
      "##ef": 2367,
      "büyük": 2368,
      "kiş": 2369,
      "##oc": 2370,
      "##00": 2371,
      "##kin": 2372,
      "bak": 2373,
      "##bul": 2374,
      "##ley": 2375,
      "##makta": 2376,
      "uz": 2377,
      "kend": 2378,
      "özel": 2379,
      "##kan": 2380,
      "##tr": 2381,
      "veya": 2382,
      "gir": 2383,
      "biz": 2384,
      "söyle": 2385,
      "##larının": 2386,
      "##eleri": 2387,
      "ilg": 2388,
      "Al": 2389,
      "##üs": 2390,
      "sev": 2391,
      "##iv": 2392,
      "düz": 2393,
      "yol": 2394,
      "iyi": 2395,
      "##elik": 2396,
      "##enin": 2397,
      "gerçek": 2398,
      "insan": 2399,
      "göre": 2400,
      "19": 2401,
      "ki": 2402,
      "gen": 2403,
      "ko": 2404,
      "##ster": 2405,
      "do": 2406,
      "yok": 2407,
      "##sel": 2408,
      "##lığı": 2409,
      "##re": 2410,
      "ilk": 2411,
      "##esinde": 2412,
      "##ısı": 2413,
      "##yan": 2414,
      "##ram": 2415,
      "açık": 2416,
      "##eceğ": 2417,
      "##mekte": 2418,
      "##siniz": 2419,
      "##est": 2420,
      "##lere": 2421,
      "##ünü": 2422,
      "önem": 2423,
      "böl": 2424,
      "##yı": 2425,
      "##uyor": 2426,
      "##tık": 2427,
      "bağ": 2428,
      "##mesi": 2429,
      "es": 2430,
      "##larına": 2431,
      "##iyorum": 2432,
      "##rı": 2433,
      "##ğu": 2434,
      "iz": 2435,
      "hem": 2436,
      "##erk": 2437,
      "yük": 2438,
      "mil": 2439,
      "tarafından": 2440,
      "neden": 2441,
      "ok": 2442,
      "##ale": 2443,
      "olduğunu": 2444,
      "edil": 2445,
      "as": 2446,
      "göster": 2447,
      "##iyat": 2448,
      "##dü": 2449,
      "har": 2450,
      "##fa": 2451,
      "yet": 2452,
      "durum": 2453,
      "##ran": 2454,
      "##dık": 2455,
      "##ğit": 2456,
      "ort": 2457,
      "olduğu": 2458,
      "##emiz": 2459,
      "##uh": 2460,
      "##dik": 2461,
      "##si": 2462,
      "ih": 2463,
      "##etir": 2464,
      "tarih": 2465,
      "##dece": 2466,
      "##bir": 2467,
      "##izmet": 2468,
      "fark": 2469,
      "##muş": 2470,
      "seç": 2471,
      "##larında": 2472,
      "##tik": 2473,
      "der": 2474,
      "getir": 2475,
      "Ar": 2476,
      "##lah": 2477,
      "önce": 2478,
      "##lığ": 2479,
      "##eğ": 2480,
      "şekil": 2481,
      "ada": 2482,
      "par": 2483,
      "İn": 2484,
      "##liği": 2485,
      "##maktadır": 2486,
      "##eyi": 2487,
      "##up": 2488,
      "ser": 2489,
      "##leştir": 2490,
      "nin": 2491,
      "Er": 2492,
      "Ay": 2493,
      "çek": 2494,
      "ad": 2495,
      "oluş": 2496,
      "dün": 2497,
      "mü": 2498,
      "##sı": 2499,
      "alt": 2500,
      "##ven": 2501,
      "##ac": 2502,
      "##ıp": 2503,
      "değiş": 2504,
      "##ileri": 2505,
      "##aret": 2506,
      "san": 2507,
      "##od": 2508,
      "göz": 2509,
      "##asyon": 2510,
      "sır": 2511,
      "##ıla": 2512,
      "öl": 2513,
      "öğren": 2514,
      "##oz": 2515,
      "##mektedir": 2516,
      "##daş": 2517,
      "Kur": 2518,
      "##acak": 2519,
      "##aber": 2520,
      "kaz": 2521,
      "su": 2522,
      "##kanı": 2523,
      "##dur": 2524,
      "tüm": 2525,
      "söz": 2526,
      "er": 2527,
      "hiç": 2528,
      "ilgili": 2529,
      "##ımı": 2530,
      "##üzel": 2531,
      "##iğer": 2532,
      "##ocuk": 2533,
      "etti": 2534,
      "tut": 2535,
      "alı": 2536,
      "has": 2537,
      "##nı": 2538,
      "az": 2539,
      "##abilir": 2540,
      "aş": 2541,
      "şekilde": 2542,
      "İst": 2543,
      "##raf": 2544,
      "##tar": 2545,
      "mi": 2546,
      "hizmet": 2547,
      "##ça": 2548,
      "##ika": 2549,
      "iki": 2550,
      "bin": 2551,
      "uygu": 2552,
      "##ağı": 2553,
      "##azla": 2554,
      "##ulu": 2555,
      "##tür": 2556,
      "bur": 2557,
      "ülk": 2558,
      "##liğ": 2559,
      "olur": 2560,
      "tan": 2561,
      "##han": 2562,
      "haz": 2563,
      "##tü": 2564,
      "##por": 2565,
      "##lardan": 2566,
      "ın": 2567,
      "##lerde": 2568,
      "bilg": 2569,
      "devam": 2570,
      "10": 2571,
      "##usu": 2572,
      "##ayan": 2573,
      "Bel": 2574,
      "##esine": 2575,
      "zor": 2576,
      "##siz": 2577,
      "fazla": 2578,
      "içinde": 2579,
      "##istem": 2580,
      "##çe": 2581,
      "at": 2582,
      "duy": 2583,
      "##erkez": 2584,
      "önemli": 2585,
      "sahip": 2586,
      "değer": 2587,
      "konuş": 2588,
      "##ğitim": 2589,
      "##olo": 2590,
      "200": 2591,
      "sen": 2592,
      "Bak": 2593,
      "##lerinin": 2594,
      "başla": 2595,
      "kor": 2596,
      "düzen": 2597,
      "##tu": 2598,
      "sat": 2599,
      "yaptı": 2600,
      "hayat": 2601,
      "##ayı": 2602,
      "##esini": 2603,
      "##ebilir": 2604,
      "is": 2605,
      "##gün": 2606,
      "##maz": 2607,
      "Ben": 2608,
      "ter": 2609,
      "birlik": 2610,
      "##emek": 2611,
      "dış": 2612,
      "##sız": 2613,
      "sonu": 2614,
      "geliş": 2615,
      "##azı": 2616,
      "yay": 2617,
      "ağ": 2618,
      "bas": 2619,
      "##ig": 2620,
      "un": 2621,
      "##sek": 2622,
      "##lendir": 2623,
      "##rup": 2624,
      "Gen": 2625,
      "##ındaki": 2626,
      "taş": 2627,
      "##dim": 2628,
      "##ünde": 2629,
      "Öz": 2630,
      "arasında": 2631,
      "##anbul": 2632,
      "##lerine": 2633,
      "##der": 2634,
      "hat": 2635,
      "diye": 2636,
      "hakk": 2637,
      "çalışma": 2638,
      "güzel": 2639,
      "bek": 2640,
      "kim": 2641,
      "##kü": 2642,
      "##ilik": 2643,
      "kö": 2644,
      "konu": 2645,
      "##meye": 2646,
      "alın": 2647,
      "kıs": 2648,
      "hazır": 2649,
      "##tör": 2650,
      "düşün": 2651,
      "diğer": 2652,
      "##larla": 2653,
      "En": 2654,
      "##esin": 2655,
      "##oloj": 2656,
      "te": 2657,
      "yönet": 2658,
      "##dığını": 2659,
      "olacak": 2660,
      "##rün": 2661,
      "##gun": 2662,
      "##oş": 2663,
      "İş": 2664,
      "gelen": 2665,
      "##eme": 2666,
      "içer": 2667,
      "ede": 2668,
      "tes": 2669,
      "##likle": 2670,
      "##asıl": 2671,
      "oyun": 2672,
      "İstanbul": 2673,
      "##ket": 2674,
      "##ıcı": 2675,
      "##gram": 2676,
      "sistem": 2677,
      "Mü": 2678,
      "çocuk": 2679,
      "birlikte": 2680,
      "aynı": 2681,
      "##ütün": 2682,
      "etk": 2683,
      "##eyen": 2684,
      "yapıl": 2685,
      "##ala": 2686,
      "saat": 2687,
      "olmak": 2688,
      "arka": 2689,
      "##ile": 2690,
      "##üp": 2691,
      "tem": 2692,
      "Ak": 2693,
      "##aba": 2694,
      "##tiğ": 2695,
      "##ne": 2696,
      "im": 2697,
      "mı": 2698,
      "İs": 2699,
      "Av": 2700,
      "sadece": 2701,
      "##ehir": 2702,
      "git": 2703,
      "mes": 2704,
      "dönem": 2705,
      "##mıştır": 2706,
      "üret": 2707,
      "güven": 2708,
      "##ide": 2709,
      "görev": 2710,
      "##det": 2711,
      "##uv": 2712,
      "doğru": 2713,
      "yapılan": 2714,
      "ör": 2715,
      "sit": 2716,
      "##bet": 2717,
      "ot": 2718,
      "üst": 2719,
      "eden": 2720,
      "dik": 2721,
      "##iyon": 2722,
      "haf": 2723,
      "eş": 2724,
      "tama": 2725,
      "yat": 2726,
      "boy": 2727,
      "##masını": 2728,
      "çıkar": 2729,
      "kazan": 2730,
      "##cel": 2731,
      "nın": 2732,
      "##larımız": 2733,
      "##ilerin": 2734,
      "##lanan": 2735,
      "##ye": 2736,
      "##dar": 2737,
      "AB": 2738,
      "##iyas": 2739,
      "##ub": 2740,
      "##eniz": 2741,
      "Ama": 2742,
      "sav": 2743,
      "iliş": 2744,
      "dav": 2745,
      "ulaş": 2746,
      "farklı": 2747,
      "##ivers": 2748,
      "kan": 2749,
      "##asar": 2750,
      "kendi": 2751,
      "##miştir": 2752,
      "##’da": 2753,
      "karar": 2754,
      "##’nin": 2755,
      "##sin": 2756,
      "Or": 2757,
      "##ırak": 2758,
      "Kar": 2759,
      "##olu": 2760,
      "##layan": 2761,
      "Kon": 2762,
      "##nivers": 2763,
      "##rak": 2764,
      "On": 2765,
      "##lerinde": 2766,
      "nasıl": 2767,
      "##ildi": 2768,
      "bölg": 2769,
      "##niversit": 2770,
      "##luk": 2771,
      "##leme": 2772,
      "yardım": 2773,
      "kam": 2774,
      "##masına": 2775,
      "Bil": 2776,
      "Pro": 2777,
      "##lak": 2778,
      "bile": 2779,
      "##ızı": 2780,
      "Başkanı": 2781,
      "ürün": 2782,
      "15": 2783,
      "tür": 2784,
      "bırak": 2785,
      "##yal": 2786,
      "##larından": 2787,
      "##dem": 2788,
      "##iyoruz": 2789,
      "##üne": 2790,
      "bun": 2791,
      "##anın": 2792,
      "İl": 2793,
      "##hur": 2794,
      "##ilmesi": 2795,
      "Bur": 2796,
      "##ğü": 2797,
      "##laya": 2798,
      "##eket": 2799,
      "##ing": 2800,
      "##üç": 2801,
      "tel": 2802,
      "Son": 2803,
      "sık": 2804,
      "##diğini": 2805,
      "##mez": 2806,
      "##cü": 2807,
      "##malı": 2808,
      "başka": 2809,
      "mal": 2810,
      "belirt": 2811,
      "##tiy": 2812,
      "##kat": 2813,
      "tab": 2814,
      "sek": 2815,
      "benim": 2816,
      "##min": 2817,
      "kit": 2818,
      "ara": 2819,
      "hav": 2820,
      "##acağ": 2821,
      "bit": 2822,
      "##usunda": 2823,
      "##esinin": 2824,
      "##üyor": 2825,
      "##’de": 2826,
      "##lus": 2827,
      "ik": 2828,
      "mut": 2829,
      "##ov": 2830,
      "##mal": 2831,
      "kaç": 2832,
      "görün": 2833,
      "biri": 2834,
      "tekn": 2835,
      "12": 2836,
      "##uma": 2837,
      "bulunan": 2838,
      "gid": 2839,
      "##eden": 2840,
      "sal": 2841,
      "eder": 2842,
      "Ev": 2843,
      "##gil": 2844,
      "fa": 2845,
      "##og": 2846,
      "##isinde": 2847,
      "kurul": 2848,
      "##ünkü": 2849,
      "gön": 2850,
      "##ıldı": 2851,
      "##ahat": 2852,
      "güç": 2853,
      "olması": 2854,
      "##umhur": 2855,
      "işlem": 2856,
      "##net": 2857,
      "##’ın": 2858,
      "dedi": 2859,
      "##ici": 2860,
      "mak": 2861,
      "yüksek": 2862,
      "sun": 2863,
      "##ER": 2864,
      "##ira": 2865,
      "##lerden": 2866,
      "##AR": 2867,
      "##lantı": 2868,
      "##estek": 2869,
      "##lük": 2870,
      "Genel": 2871,
      "##ri": 2872,
      "görüş": 2873,
      "Her": 2874,
      "##ırım": 2875,
      "sı": 2876,
      "önc": 2877,
      "##atı": 2878,
      "mod": 2879,
      "##ebil": 2880,
      "##dum": 2881,
      "##AN": 2882,
      "böyle": 2883,
      "##kı": 2884,
      "##sam": 2885,
      "oyn": 2886,
      "##tal": 2887,
      "kadın": 2888,
      "kız": 2889,
      "eğitim": 2890,
      "##lerle": 2891,
      "çev": 2892,
      "##ob": 2893,
      "##irket": 2894,
      "yür": 2895,
      "##onom": 2896,
      "uygun": 2897,
      "arkadaş": 2898,
      "geçir": 2899,
      "hakkında": 2900,
      "##işim": 2901,
      "yüzde": 2902,
      "dikkat": 2903,
      "üzere": 2904,
      "ihtiy": 2905,
      "sorun": 2906,
      "bah": 2907,
      "adam": 2908,
      "##duğu": 2909,
      "olduk": 2910,
      "ala": 2911,
      "üzerine": 2912,
      "##rıca": 2913,
      "Beled": 2914,
      "program": 2915,
      "##ıt": 2916,
      "üç": 2917,
      "##tırma": 2918,
      "Mil": 2919,
      "##van": 2920,
      "##bar": 2921,
      "##tığ": 2922,
      "oluştur": 2923,
      "##elerin": 2924,
      "##mer": 2925,
      "Gün": 2926,
      "bütün": 2927,
      "fiyat": 2928,
      "##unuz": 2929,
      "##ılır": 2930,
      "##rar": 2931,
      "art": 2932,
      "##gan": 2933,
      "genel": 2934,
      "yılında": 2935,
      "##imdi": 2936,
      "##lerinden": 2937,
      "##mi": 2938,
      "mad": 2939,
      "şu": 2940,
      "San": 2941,
      "##’in": 2942,
      "tamam": 2943,
      "proj": 2944,
      "##las": 2945,
      "bazı": 2946,
      "##ge": 2947,
      "##tım": 2948,
      "##ümüz": 2949,
      "##bol": 2950,
      "Ek": 2951,
      "hep": 2952,
      "iste": 2953,
      "##enk": 2954,
      "tam": 2955,
      "uzun": 2956,
      "##mayı": 2957,
      "kayn": 2958,
      "destek": 2959,
      "film": 2960,
      "üzerinde": 2961,
      "##gel": 2962,
      "##manın": 2963,
      "##lum": 2964,
      "Biz": 2965,
      "##cek": 2966,
      "pol": 2967,
      "##oğlu": 2968,
      "##üçük": 2969,
      "##lenen": 2970,
      "din": 2971,
      "maç": 2972,
      "Tek": 2973,
      "11": 2974,
      "##lıyor": 2975,
      "muh": 2976,
      "##istan": 2977,
      "Cumhur": 2978,
      "##mem": 2979,
      "ye": 2980,
      "##elim": 2981,
      "hasta": 2982,
      "can": 2983,
      "##irma": 2984,
      "anlam": 2985,
      "hareket": 2986,
      "dem": 2987,
      "##sal": 2988,
      "kabul": 2989,
      "##osyal": 2990,
      "çöz": 2991,
      "Ve": 2992,
      "ifa": 2993,
      "gerçekleştir": 2994,
      "bana": 2995,
      "kişi": 2996,
      "bölüm": 2997,
      "##orum": 2998,
      "Dün": 2999,
      "##sın": 3000,
      "As": 3001,
      "ediyor": 3002,
      "kr": 3003,
      "dil": 3004,
      "##baş": 3005,
      "##inizi": 3006,
      "merkez": 3007,
      "orta": 3008,
      "ortaya": 3009,
      "##ılması": 3010,
      "yas": 3011,
      "plan": 3012,
      "haber": 3013,
      "hız": 3014,
      "milyon": 3015,
      "res": 3016,
      "Avrup": 3017,
      "##çi": 3018,
      "##üküm": 3019,
      "##akat": 3020,
      "ifade": 3021,
      "Müdür": 3022,
      "olay": 3023,
      "bey": 3024,
      "pay": 3025,
      "El": 3026,
      "##gı": 3027,
      "kes": 3028,
      "##ver": 3029,
      "##umuz": 3030,
      "##end": 3031,
      "##efon": 3032,
      "bunu": 3033,
      "teş": 3034,
      "##atan": 3035,
      "##duğ": 3036,
      "koy": 3037,
      "olabilir": 3038,
      "Ne": 3039,
      "##ladı": 3040,
      "dan": 3041,
      "##okt": 3042,
      "##eti": 3043,
      "##suz": 3044,
      "##’nın": 3045,
      "mah": 3046,
      "##çı": 3047,
      "kolay": 3048,
      "30": 3049,
      "Es": 3050,
      "met": 3051,
      "##lamak": 3052,
      "etmek": 3053,
      "##indeki": 3054,
      "Dev": 3055,
      "mu": 3056,
      "18": 3057,
      "karş": 3058,
      "üy": 3059,
      "##ba": 3060,
      "##ilir": 3061,
      "Ancak": 3062,
      "tah": 3063,
      "##landır": 3064,
      "gönder": 3065,
      "##lerimiz": 3066,
      "kom": 3067,
      "seb": 3068,
      "Başkan": 3069,
      "Avrupa": 3070,
      "##ort": 3071,
      "yaklaş": 3072,
      "##dından": 3073,
      "Üniversit": 3074,
      "yakın": 3075,
      "sonr": 3076,
      "ABD": 3077,
      "dünya": 3078,
      "##ele": 3079,
      "konusunda": 3080,
      "##isini": 3081,
      "onu": 3082,
      "##tığı": 3083,
      "##ban": 3084,
      "##eceği": 3085,
      "söyledi": 3086,
      "hafta": 3087,
      "Yar": 3088,
      "##ılacak": 3089,
      "başar": 3090,
      "tasar": 3091,
      "ancak": 3092,
      "##meler": 3093,
      "##uru": 3094,
      "kır": 3095,
      "onun": 3096,
      "Bakan": 3097,
      "##tin": 3098,
      "##kek": 3099,
      "##ültür": 3100,
      "yerine": 3101,
      "##kara": 3102,
      "##trol": 3103,
      "para": 3104,
      "şirket": 3105,
      "his": 3106,
      "##tif": 3107,
      "Ara": 3108,
      "öğrenc": 3109,
      "yayın": 3110,
      "##gin": 3111,
      "##din": 3112,
      "##aj": 3113,
      "##azet": 3114,
      "##mel": 3115,
      "Kan": 3116,
      "##asına": 3117,
      "ayr": 3118,
      "kez": 3119,
      "bugün": 3120,
      "##azar": 3121,
      "kı": 3122,
      "mev": 3123,
      "##orm": 3124,
      "##doğ": 3125,
      "Yön": 3126,
      "##oğraf": 3127,
      "rahat": 3128,
      "bilgi": 3129,
      "Hay": 3130,
      "##undan": 3131,
      "##siyon": 3132,
      "Par": 3133,
      "##he": 3134,
      "geri": 3135,
      "##çok": 3136,
      "##mam": 3137,
      "artık": 3138,
      "tanı": 3139,
      "##urt": 3140,
      "taşı": 3141,
      "öğret": 3142,
      "##tem": 3143,
      "##cret": 3144,
      "##arası": 3145,
      "##yle": 3146,
      "vur": 3147,
      "han": 3148,
      "ziy": 3149,
      "##eşit": 3150,
      "##edef": 3151,
      "##ılım": 3152,
      "Doğ": 3153,
      "süre": 3154,
      "##tim": 3155,
      "telefon": 3156,
      "tur": 3157,
      "yapan": 3158,
      "##ök": 3159,
      "hiçbir": 3160,
      "Ser": 3161,
      "##per": 3162,
      "##isine": 3163,
      "##dın": 3164,
      "biraz": 3165,
      "edilen": 3166,
      "Merkez": 3167,
      "sonuç": 3168,
      "##ınır": 3169,
      "##unca": 3170,
      "##bilirsiniz": 3171,
      "diy": 3172,
      "##mir": 3173,
      "##madan": 3174,
      "hes": 3175,
      "man": 3176,
      "##ime": 3177,
      "##lo": 3178,
      "##dav": 3179,
      "yaptığı": 3180,
      "##ayın": 3181,
      "ekonom": 3182,
      "ardından": 3183,
      "gelir": 3184,
      "##sanız": 3185,
      "##ali": 3186,
      "##kinci": 3187,
      "uygulama": 3188,
      "sıra": 3189,
      "sağlık": 3190,
      "##ıda": 3191,
      "Özel": 3192,
      "kav": 3193,
      "uç": 3194,
      "günü": 3195,
      "ün": 3196,
      "mer": 3197,
      "##ince": 3198,
      "Allah": 3199,
      "##ılmış": 3200,
      "At": 3201,
      "##bak": 3202,
      "Büyük": 3203,
      "yanı": 3204,
      "küçük": 3205,
      "Yap": 3206,
      "##oh": 3207,
      "##eg": 3208,
      "##landı": 3209,
      "##mey": 3210,
      "##nek": 3211,
      "büy": 3212,
      "takım": 3213,
      "ban": 3214,
      "bilin": 3215,
      "beni": 3216,
      "değerlendir": 3217,
      "##sunuz": 3218,
      "2018": 3219,
      "Sa": 3220,
      "##etim": 3221,
      "Ankara": 3222,
      "yen": 3223,
      "vardır": 3224,
      "##umu": 3225,
      "14": 3226,
      "geçen": 3227,
      "Der": 3228,
      "ber": 3229,
      "Ön": 3230,
      "Yan": 3231,
      "##ize": 3232,
      "##br": 3233,
      "16": 3234,
      "dak": 3235,
      "##ilere": 3236,
      "Bay": 3237,
      "ses": 3238,
      "dolay": 3239,
      "##res": 3240,
      "bağlı": 3241,
      "burada": 3242,
      "terc": 3243,
      "hüküm": 3244,
      "25": 3245,
      "yine": 3246,
      "##eceğini": 3247,
      "kontrol": 3248,
      "Top": 3249,
      "##ıyorum": 3250,
      "##ber": 3251,
      "savaş": 3252,
      "##izi": 3253,
      "açıklama": 3254,
      "Has": 3255,
      "Sen": 3256,
      "yarat": 3257,
      "13": 3258,
      "##ternet": 3259,
      "##ch": 3260,
      "araç": 3261,
      "iti": 3262,
      "İz": 3263,
      "isim": 3264,
      "hedef": 3265,
      "müz": 3266,
      "##uluk": 3267,
      "Yıl": 3268,
      "genç": 3269,
      "##ünün": 3270,
      "##sik": 3271,
      "söy": 3272,
      "çeşit": 3273,
      "##üc": 3274,
      "eski": 3275,
      "##cağı": 3276,
      "herk": 3277,
      "Hal": 3278,
      "tat": 3279,
      "paylaş": 3280,
      "##ust": 3281,
      "altında": 3282,
      "##na": 3283,
      "içerisinde": 3284,
      "##asını": 3285,
      "##ent": 3286,
      "bar": 3287,
      "devlet": 3288,
      "Böl": 3289,
      "##cad": 3290,
      "##larıyla": 3291,
      "anlaş": 3292,
      "hemen": 3293,
      "kapsam": 3294,
      "##oğun": 3295,
      "bildir": 3296,
      "##müş": 3297,
      "ziyaret": 3298,
      "##amp": 3299,
      "siyas": 3300,
      "##isyon": 3301,
      "##düğ": 3302,
      "mas": 3303,
      "id": 3304,
      "kurum": 3305,
      "Mah": 3306,
      "tr": 3307,
      "kısa": 3308,
      "araş": 3309,
      "dah": 3310,
      "birçok": 3311,
      "pek": 3312,
      "##meden": 3313,
      "Eğer": 3314,
      "yaşam": 3315,
      "mey": 3316,
      "ücret": 3317,
      "bunun": 3318,
      "ta": 3319,
      "Mar": 3320,
      "##ost": 3321,
      "##ıntı": 3322,
      "##abilirsiniz": 3323,
      "size": 3324,
      "tav": 3325,
      "seçim": 3326,
      "sektör": 3327,
      "cez": 3328,
      "sab": 3329,
      "kil": 3330,
      "mem": 3331,
      "##duk": 3332,
      "Yeni": 3333,
      "##kün": 3334,
      "Dr": 3335,
      "##ektr": 3336,
      "##iyi": 3337,
      "yaşa": 3338,
      "##tiği": 3339,
      "olup": 3340,
      "ait": 3341,
      "##sınız": 3342,
      "##isinin": 3343,
      "##sil": 3344,
      "##üşter": 3345,
      "yapmak": 3346,
      "##ekk": 3347,
      "bizim": 3348,
      "indir": 3349,
      "olmuş": 3350,
      "olsun": 3351,
      "kalit": 3352,
      "Tar": 3353,
      "17": 3354,
      "##elen": 3355,
      "inan": 3356,
      "##uyu": 3357,
      "dir": 3358,
      "Eğitim": 3359,
      "toplum": 3360,
      "anla": 3361,
      "Bunun": 3362,
      "##ekli": 3363,
      "gereken": 3364,
      "kaynak": 3365,
      "oda": 3366,
      "##za": 3367,
      "İngil": 3368,
      "fır": 3369,
      "##meyi": 3370,
      "istem": 3371,
      "Haz": 3372,
      "##ışma": 3373,
      "##ünüyor": 3374,
      "bor": 3375,
      "##otoğraf": 3376,
      "ders": 3377,
      "com": 3378,
      "suç": 3379,
      "tercih": 3380,
      "geldi": 3381,
      "##obil": 3382,
      "##aliyet": 3383,
      "##üb": 3384,
      "##diğiniz": 3385,
      "##ilmiş": 3386,
      "Daha": 3387,
      "##üsü": 3388,
      "ask": 3389,
      "##diğim": 3390,
      "##ayet": 3391,
      "geliştir": 3392,
      "##masının": 3393,
      "tale": 3394,
      "Üniversitesi": 3395,
      "kol": 3396,
      "zar": 3397,
      "başv": 3398,
      "erkek": 3399,
      "sak": 3400,
      "Ayrıca": 3401,
      "anlat": 3402,
      "Tem": 3403,
      "tekrar": 3404,
      "soru": 3405,
      "##rat": 3406,
      "##luslar": 3407,
      "sınır": 3408,
      "Bey": 3409,
      "ner": 3410,
      "Öğ": 3411,
      "oran": 3412,
      "müm": 3413,
      "Çünkü": 3414,
      "##erj": 3415,
      "yağ": 3416,
      "firma": 3417,
      "##umlu": 3418,
      "zamanda": 3419,
      "##’a": 3420,
      "##abı": 3421,
      "##gın": 3422,
      "##ve": 3423,
      "model": 3424,
      "İç": 3425,
      "##amaz": 3426,
      "istiyor": 3427,
      "##erli": 3428,
      "incel": 3429,
      "yaşan": 3430,
      "dönüş": 3431,
      "##bu": 3432,
      "ma": 3433,
      "kitap": 3434,
      "##lim": 3435,
      "Dünya": 3436,
      "ilişk": 3437,
      "değişik": 3438,
      "cev": 3439,
      "oluyor": 3440,
      "okul": 3441,
      "##cağını": 3442,
      "çalışan": 3443,
      "uzak": 3444,
      "nedeniyle": 3445,
      "sosyal": 3446,
      "değiştir": 3447,
      "Ko": 3448,
      "vatan": 3449,
      "uğ": 3450,
      "halk": 3451,
      "24": 3452,
      "Amer": 3453,
      "100": 3454,
      "##teş": 3455,
      "##ınıf": 3456,
      "##deş": 3457,
      "##ünden": 3458,
      "##asının": 3459,
      "yani": 3460,
      "00": 3461,
      "per": 3462,
      "mek": 3463,
      "##fer": 3464,
      "çağ": 3465,
      "Hak": 3466,
      "##iyesi": 3467,
      "em": 3468,
      "otur": 3469,
      "koş": 3470,
      "##lüğü": 3471,
      "mümkün": 3472,
      "##ET": 3473,
      "itibar": 3474,
      "senin": 3475,
      "veren": 3476,
      "temiz": 3477,
      "##hangi": 3478,
      "##may": 3479,
      "199": 3480,
      "##ola": 3481,
      "##alt": 3482,
      "Ban": 3483,
      "##utbol": 3484,
      "İlk": 3485,
      "mücad": 3486,
      "Kas": 3487,
      "sey": 3488,
      "ağır": 3489,
      "##leyen": 3490,
      "Ok": 3491,
      "karşılaş": 3492,
      "##luslararası": 3493,
      "##lek": 3494,
      "##dak": 3495,
      "##taş": 3496,
      "renk": 3497,
      "yeniden": 3498,
      "beraber": 3499,
      "##doğan": 3500,
      "##imde": 3501,
      "##miyor": 3502,
      "##oloji": 3503,
      "si": 3504,
      "##ışı": 3505,
      "Kom": 3506,
      "kaldır": 3507,
      "TL": 3508,
      "gi": 3509,
      "##imizi": 3510,
      "boş": 3511,
      "birbir": 3512,
      "engel": 3513,
      "##EN": 3514,
      "##ecektir": 3515,
      "Kay": 3516,
      "sanat": 3517,
      "##for": 3518,
      "Tur": 3519,
      "kesin": 3520,
      "##bi": 3521,
      "ila": 3522,
      "oldukça": 3523,
      "madde": 3524,
      "##fen": 3525,
      "##ari": 3526,
      "öldür": 3527,
      "tedav": 3528,
      "##dana": 3529,
      "##aten": 3530,
      "kut": 3531,
      "ilç": 3532,
      "mis": 3533,
      "başladı": 3534,
      "hava": 3535,
      "##ümü": 3536,
      "Oy": 3537,
      "##AL": 3538,
      "##lemek": 3539,
      "##lında": 3540,
      "##yanın": 3541,
      "##imizin": 3542,
      "##manız": 3543,
      "##fes": 3544,
      "mar": 3545,
      "öde": 3546,
      "Ey": 3547,
      "##tiğini": 3548,
      "##pr": 3549,
      "özellikle": 3550,
      "müşter": 3551,
      "##lanması": 3552,
      "ele": 3553,
      "##yacak": 3554,
      "saldır": 3555,
      "Gör": 3556,
      "ikinci": 3557,
      "ister": 3558,
      "söyley": 3559,
      "konusu": 3560,
      "##ülen": 3561,
      "rağ": 3562,
      "##pan": 3563,
      "##vet": 3564,
      "##elere": 3565,
      "##mesini": 3566,
      "kas": 3567,
      "yorum": 3568,
      "AK": 3569,
      "faaliyet": 3570,
      "##unuyor": 3571,
      "yapar": 3572,
      "elde": 3573,
      "Os": 3574,
      "gece": 3575,
      "##lül": 3576,
      "bay": 3577,
      "Ah": 3578,
      "sar": 3579,
      "##lacak": 3580,
      "##lüğ": 3581,
      "takip": 3582,
      "etkin": 3583,
      "##apor": 3584,
      "##fet": 3585,
      "rek": 3586,
      "oku": 3587,
      "üzerinden": 3588,
      "yönelik": 3589,
      "##ısında": 3590,
      "##esinden": 3591,
      "toplantı": 3592,
      "veril": 3593,
      "şeh": 3594,
      "yapı": 3595,
      "##şa": 3596,
      "##tiv": 3597,
      "##şam": 3598,
      "##lardır": 3599,
      "boz": 3600,
      "ac": 3601,
      "yemek": 3602,
      "yatırım": 3603,
      "mik": 3604,
      "##of": 3605,
      "50": 3606,
      "##ilerini": 3607,
      "##aln": 3608,
      "ilişkin": 3609,
      "##elerde": 3610,
      "diz": 3611,
      "spor": 3612,
      "ona": 3613,
      "düny": 3614,
      "ail": 3615,
      "eğ": 3616,
      "rağmen": 3617,
      "##lanmış": 3618,
      "fotoğraf": 3619,
      "gez": 3620,
      "##uştur": 3621,
      "##dül": 3622,
      "görül": 3623,
      "##ga": 3624,
      "num": 3625,
      "dair": 3626,
      "ortak": 3627,
      "##su": 3628,
      "##yar": 3629,
      "kork": 3630,
      "##ocu": 3631,
      "##ğini": 3632,
      "ilet": 3633,
      "teh": 3634,
      "temel": 3635,
      "geniş": 3636,
      "grup": 3637,
      "21": 3638,
      "##üf": 3639,
      "tük": 3640,
      "kötü": 3641,
      "yönetim": 3642,
      "iy": 3643,
      "Sağ": 3644,
      "##be": 3645,
      "##ınav": 3646,
      "yetk": 3647,
      "gazet": 3648,
      "##iyeti": 3649,
      "sok": 3650,
      "Alman": 3651,
      "olmayan": 3652,
      "şimdi": 3653,
      "olsa": 3654,
      "##mı": 3655,
      "##uan": 3656,
      "##ha": 3657,
      "öyle": 3658,
      "herhangi": 3659,
      "gerekir": 3660,
      "anda": 3661,
      "##ow": 3662,
      "##taj": 3663,
      "Uz": 3664,
      "##lis": 3665,
      "##ere": 3666,
      "av": 3667,
      "adı": 3668,
      "##icaret": 3669,
      "##ört": 3670,
      "çıkan": 3671,
      "almak": 3672,
      "Devlet": 3673,
      "##leriyle": 3674,
      "yüksel": 3675,
      "##lış": 3676,
      "##alnız": 3677,
      "çiz": 3678,
      "##ayda": 3679,
      "##diğimiz": 3680,
      "yöntem": 3681,
      "hatır": 3682,
      "##set": 3683,
      "aras": 3684,
      "##ela": 3685,
      "##ate": 3686,
      "dışında": 3687,
      "iddi": 3688,
      "##okta": 3689,
      "Dem": 3690,
      "kültür": 3691,
      "##ilerine": 3692,
      "kah": 3693,
      "Erdoğan": 3694,
      "sizin": 3695,
      "##ılıyor": 3696,
      "##rim": 3697,
      "Har": 3698,
      "serv": 3699,
      "##ift": 3700,
      "ayrı": 3701,
      "##larınız": 3702,
      "##ekkür": 3703,
      "##yo": 3704,
      "aşağı": 3705,
      "##meli": 3706,
      "##laması": 3707,
      "Rus": 3708,
      "##can": 3709,
      "##ukuk": 3710,
      "bize": 3711,
      "##muz": 3712,
      "özellik": 3713,
      "Ada": 3714,
      "cin": 3715,
      "boyunca": 3716,
      "##HP": 3717,
      "Gel": 3718,
      "##cısı": 3719,
      "##eyim": 3720,
      "amacı": 3721,
      "##ezon": 3722,
      "sürdür": 3723,
      "kuru": 3724,
      "istiyorum": 3725,
      "Meh": 3726,
      "Belediye": 3727,
      "sana": 3728,
      "Ma": 3729,
      "##kaç": 3730,
      "çar": 3731,
      "2017": 3732,
      "##esiyle": 3733,
      "##iştir": 3734,
      "Ot": 3735,
      "##elerini": 3736,
      "##masında": 3737,
      "gider": 3738,
      "dok": 3739,
      "##ant": 3740,
      "##azi": 3741,
      "nun": 3742,
      "gerekli": 3743,
      "Ali": 3744,
      "örg": 3745,
      "zorunda": 3746,
      "##ısından": 3747,
      "satış": 3748,
      "##efer": 3749,
      "seni": 3750,
      "internet": 3751,
      "##eğin": 3752,
      "ayak": 3753,
      "##ınca": 3754,
      "giriş": 3755,
      "öner": 3756,
      "##anıyor": 3757,
      "##ıyoruz": 3758,
      "ortam": 3759,
      "##İN": 3760,
      "alış": 3761,
      "lis": 3762,
      "aldı": 3763,
      "olabil": 3764,
      "millet": 3765,
      "##AT": 3766,
      "##imize": 3767,
      "giy": 3768,
      "##izm": 3769,
      "demek": 3770,
      "Kal": 3771,
      "##cılık": 3772,
      "pat": 3773,
      "dakika": 3774,
      "##isay": 3775,
      "Em": 3776,
      "dol": 3777,
      "bab": 3778,
      "karış": 3779,
      "çözüm": 3780,
      "##ılma": 3781,
      "dolar": 3782,
      "Muh": 3783,
      "şekl": 3784,
      "aday": 3785,
      "gerçekleş": 3786,
      "şöyle": 3787,
      "kuruluş": 3788,
      "##lanır": 3789,
      "##lanma": 3790,
      "dolayı": 3791,
      "değildir": 3792,
      "Kurulu": 3793,
      "##meyen": 3794,
      "yüzden": 3795,
      "nokta": 3796,
      "izin": 3797,
      "Su": 3798,
      "edecek": 3799,
      "Tr": 3800,
      "Gü": 3801,
      "köy": 3802,
      "##mesine": 3803,
      "vatandaş": 3804,
      "Mes": 3805,
      "Osman": 3806,
      "hızlı": 3807,
      "derece": 3808,
      "Çok": 3809,
      "##ener": 3810,
      "##dığımız": 3811,
      "##cut": 3812,
      "##sat": 3813,
      "##inize": 3814,
      "verdi": 3815,
      "adım": 3816,
      "Siz": 3817,
      "##AK": 3818,
      "hesap": 3819,
      "fik": 3820,
      "hey": 3821,
      "ihtiyaç": 3822,
      "##kın": 3823,
      "durumda": 3824,
      "sınıf": 3825,
      "##alar": 3826,
      "gerekiyor": 3827,
      "yarar": 3828,
      "gec": 3829,
      "Geç": 3830,
      "##eci": 3831,
      "22": 3832,
      "of": 3833,
      "organ": 3834,
      "vak": 3835,
      "Mer": 3836,
      "düşünüyor": 3837,
      "yaptığ": 3838,
      "Yani": 3839,
      "isteyen": 3840,
      "##emin": 3841,
      "Sav": 3842,
      "##sak": 3843,
      "halinde": 3844,
      "çünkü": 3845,
      "##EL": 3846,
      "Şub": 3847,
      "##ebek": 3848,
      "##enek": 3849,
      "Ab": 3850,
      "ekip": 3851,
      "amaç": 3852,
      "Kı": 3853,
      "gelecek": 3854,
      "des": 3855,
      "##ült": 3856,
      "geliyor": 3857,
      "Ch": 3858,
      "yara": 3859,
      "şehir": 3860,
      "unut": 3861,
      "ba": 3862,
      "tarihinde": 3863,
      "Tekn": 3864,
      "çevr": 3865,
      "Do": 3866,
      "kardeş": 3867,
      "##menin": 3868,
      "vardı": 3869,
      "yaklaşık": 3870,
      "nde": 3871,
      "Kul": 3872,
      "toplam": 3873,
      "ölç": 3874,
      "##erson": 3875,
      "##matik": 3876,
      "rak": 3877,
      "teknik": 3878,
      "##diler": 3879,
      "med": 3880,
      "zarar": 3881,
      "belg": 3882,
      "part": 3883,
      "##manı": 3884,
      "kalan": 3885,
      "kayıt": 3886,
      "fayda": 3887,
      "ann": 3888,
      "##laştır": 3889,
      "##vek": 3890,
      "##ğa": 3891,
      "##liyor": 3892,
      "Tan": 3893,
      "elektr": 3894,
      "polit": 3895,
      "saç": 3896,
      "şart": 3897,
      "teşekkür": 3898,
      "##mıştı": 3899,
      "tep": 3900,
      "##ES": 3901,
      "Hav": 3902,
      "##lif": 3903,
      "##dip": 3904,
      "##oktor": 3905,
      "izle": 3906,
      "enerj": 3907,
      "Yük": 3908,
      "##ii": 3909,
      "##ade": 3910,
      "yardımcı": 3911,
      "##inci": 3912,
      "##elerinin": 3913,
      "##ırı": 3914,
      "İnsan": 3915,
      "##pit": 3916,
      "Uy": 3917,
      "##’e": 3918,
      "##isk": 3919,
      "bakım": 3920,
      "cih": 3921,
      "um": 3922,
      "##meleri": 3923,
      "yapılacak": 3924,
      "çeşitli": 3925,
      "##ni": 3926,
      "adet": 3927,
      "##ilerinin": 3928,
      "Kor": 3929,
      "##ina": 3930,
      "mez": 3931,
      "Hat": 3932,
      "##dığım": 3933,
      "sahibi": 3934,
      "##isayar": 3935,
      "biç": 3936,
      "yoğun": 3937,
      "yanında": 3938,
      "##’un": 3939,
      "parça": 3940,
      "tart": 3941,
      "##tep": 3942,
      "Kad": 3943,
      "Mehmet": 3944,
      "kamu": 3945,
      "##lilik": 3946,
      "yolu": 3947,
      "men": 3948,
      "23": 3949,
      "dayan": 3950,
      "oyuncu": 3951,
      "##lâ": 3952,
      "##emi": 3953,
      "##bakan": 3954,
      "##IN": 3955,
      "davran": 3956,
      "araştırma": 3957,
      "sezon": 3958,
      "##luluk": 3959,
      "silah": 3960,
      "##ast": 3961,
      "##uvar": 3962,
      "##lım": 3963,
      "vide": 3964,
      "ora": 3965,
      "##etin": 3966,
      "yazı": 3967,
      "Aç": 3968,
      "##ýn": 3969,
      "##maları": 3970,
      "başkan": 3971,
      "konuda": 3972,
      "türlü": 3973,
      "herkes": 3974,
      "##sen": 3975,
      "##dıkları": 3976,
      "Cumhurbaş": 3977,
      "##şık": 3978,
      "futbol": 3979,
      "benzer": 3980,
      "sıcak": 3981,
      "Bun": 3982,
      "##talya": 3983,
      "net": 3984,
      "edin": 3985,
      "Kara": 3986,
      "Kap": 3987,
      "##ton": 3988,
      "Ör": 3989,
      "##usun": 3990,
      "##afa": 3991,
      "beklen": 3992,
      "##eği": 3993,
      "##üğ": 3994,
      "kapsamında": 3995,
      "Böyle": 3996,
      "çocu": 3997,
      "hale": 3998,
      "##alle": 3999,
      "##lin": 4000,
      "şeyler": 4001,
      "sayesinde": 4002,
      "ederek": 4003,
      "İzmir": 4004,
      "dahil": 4005,
      "temsil": 4006,
      "cid": 4007,
      "hoş": 4008,
      "##mişti": 4009,
      "biliyor": 4010,
      "ku": 4011,
      "##larım": 4012,
      "şark": 4013,
      "verilen": 4014,
      "Şimdi": 4015,
      "Merkezi": 4016,
      "fin": 4017,
      "##unan": 4018,
      "Bar": 4019,
      "tarihi": 4020,
      "İngiliz": 4021,
      "diyor": 4022,
      "##redi": 4023,
      "terör": 4024,
      "malz": 4025,
      "yalnız": 4026,
      "##mat": 4027,
      "ettiği": 4028,
      "mevcut": 4029,
      "det": 4030,
      "##ıyla": 4031,
      "rapor": 4032,
      "pazar": 4033,
      "##bah": 4034,
      "talep": 4035,
      "gerçekten": 4036,
      "şeyi": 4037,
      "##dığınız": 4038,
      "2016": 4039,
      "##imin": 4040,
      "konuştu": 4041,
      "##asyonu": 4042,
      "st": 4043,
      "na": 4044,
      "sürekli": 4045,
      "ana": 4046,
      "sebep": 4047,
      "özg": 4048,
      "milyar": 4049,
      "yaban": 4050,
      "işlet": 4051,
      "##şehir": 4052,
      "Han": 4053,
      "çıktı": 4054,
      "##ıldığı": 4055,
      "ip": 4056,
      "##lüm": 4057,
      "sonunda": 4058,
      "##iran": 4059,
      "##olojik": 4060,
      "kaybet": 4061,
      "40": 4062,
      "alıyor": 4063,
      "##ektör": 4064,
      "Tüm": 4065,
      "Tab": 4066,
      "Ger": 4067,
      "May": 4068,
      "polis": 4069,
      "birkaç": 4070,
      "sin": 4071,
      "Sur": 4072,
      "örnek": 4073,
      "yürüt": 4074,
      "sırasında": 4075,
      "insanlar": 4076,
      "##osu": 4077,
      "olmaz": 4078,
      "nda": 4079,
      "lid": 4080,
      "“B": 4081,
      "##ite": 4082,
      "piyas": 4083,
      "##İL": 4084,
      "olmalı": 4085,
      "##alım": 4086,
      "ilan": 4087,
      "götür": 4088,
      "##onu": 4089,
      "##rik": 4090,
      "cevap": 4091,
      "yık": 4092,
      "doğal": 4093,
      "##tay": 4094,
      "##AS": 4095,
      "##azım": 4096,
      "Bakanı": 4097,
      "##iliği": 4098,
      "##edik": 4099,
      "Deniz": 4100,
      "Kasım": 4101,
      "##’ye": 4102,
      "tespit": 4103,
      "Tak": 4104,
      "başarı": 4105,
      "nit": 4106,
      "##ebilirsiniz": 4107,
      "##adolu": 4108,
      "Çocuk": 4109,
      "##edi": 4110,
      "##yum": 4111,
      "##imleri": 4112,
      "##acı": 4113,
      "##lamaya": 4114,
      "##ova": 4115,
      "kullanıcı": 4116,
      "Milli": 4117,
      "alır": 4118,
      "Söz": 4119,
      "mesaj": 4120,
      "it": 4121,
      "açısından": 4122,
      "##iir": 4123,
      "##anlı": 4124,
      "##kem": 4125,
      "ruh": 4126,
      "000": 4127,
      "##üst": 4128,
      "Af": 4129,
      "##eder": 4130,
      "üniversit": 4131,
      "ekonomik": 4132,
      "##ormal": 4133,
      "am": 4134,
      "adına": 4135,
      "nedenle": 4136,
      "mağ": 4137,
      "Belediyesi": 4138,
      "giz": 4139,
      "dar": 4140,
      "Eylül": 4141,
      "##İR": 4142,
      "##layacak": 4143,
      "##mayan": 4144,
      "kalı": 4145,
      "ayrıca": 4146,
      "##izyon": 4147,
      "Bugün": 4148,
      "##ohbet": 4149,
      "ölüm": 4150,
      "asker": 4151,
      "##düğü": 4152,
      "yapıyor": 4153,
      "zaten": 4154,
      "canlı": 4155,
      "uzman": 4156,
      "Yaş": 4157,
      "##adde": 4158,
      "yerde": 4159,
      "dost": 4160,
      "hangi": 4161,
      "olacaktır": 4162,
      "kapat": 4163,
      "##AD": 4164,
      "başarılı": 4165,
      "sınav": 4166,
      "##ampiyon": 4167,
      "belli": 4168,
      "##ij": 4169,
      "ah": 4170,
      "Say": 4171,
      "##luğu": 4172,
      "tık": 4173,
      "güvenlik": 4174,
      "##layarak": 4175,
      "Mart": 4176,
      "üretim": 4177,
      "Yardım": 4178,
      "##oya": 4179,
      "kişinin": 4180,
      "##esel": 4181,
      "hik": 4182,
      "dile": 4183,
      "Bakanlığı": 4184,
      "##lıklı": 4185,
      "ceza": 4186,
      "çoğ": 4187,
      "##evi": 4188,
      "Evet": 4189,
      "yanlış": 4190,
      "yurt": 4191,
      "dö": 4192,
      "oper": 4193,
      "kayb": 4194,
      "Res": 4195,
      "##inc": 4196,
      "##otor": 4197,
      "##elerine": 4198,
      "Kat": 4199,
      "sonucu": 4200,
      "##yız": 4201,
      "In": 4202,
      "yere": 4203,
      "yaptık": 4204,
      "##luğ": 4205,
      "Yönet": 4206,
      "Benim": 4207,
      "Ter": 4208,
      "##eyin": 4209,
      "baz": 4210,
      "if": 4211,
      "oğ": 4212,
      "##yas": 4213,
      "Temmuz": 4214,
      "Ro": 4215,
      "sig": 4216,
      "##iğ": 4217,
      "Man": 4218,
      "kendini": 4219,
      "##ser": 4220,
      "verir": 4221,
      "puan": 4222,
      "Anadolu": 4223,
      "##eceğim": 4224,
      "bilim": 4225,
      "##anlar": 4226,
      "bayan": 4227,
      "arada": 4228,
      "sizi": 4229,
      "yıllık": 4230,
      "##emez": 4231,
      "##gar": 4232,
      "##üncü": 4233,
      "vermek": 4234,
      "Orta": 4235,
      "Parti": 4236,
      "##dük": 4237,
      "akşam": 4238,
      "beş": 4239,
      "Must": 4240,
      "Şu": 4241,
      "##dığında": 4242,
      "##air": 4243,
      "bulunduğu": 4244,
      "güçlü": 4245,
      "##medi": 4246,
      "kir": 4247,
      "mutlu": 4248,
      "##mıyor": 4249,
      "dört": 4250,
      "Spor": 4251,
      "düzenlenen": 4252,
      "dal": 4253,
      "hastan": 4254,
      "##ısıyla": 4255,
      "sayılı": 4256,
      "itibaren": 4257,
      "Fran": 4258,
      "geçmiş": 4259,
      "Haber": 4260,
      "nak": 4261,
      "Mec": 4262,
      "##lıkları": 4263,
      "Kür": 4264,
      "##ıza": 4265,
      "##ediye": 4266,
      "##ilerek": 4267,
      "##atif": 4268,
      "##lığını": 4269,
      "Ol": 4270,
      "yabancı": 4271,
      "##EK": 4272,
      "28": 4273,
      "Ver": 4274,
      "verdiği": 4275,
      "tasarım": 4276,
      "Ad": 4277,
      "inşa": 4278,
      "yum": 4279,
      "banka": 4280,
      "##lıkla": 4281,
      "##aşı": 4282,
      "don": 4283,
      "##iliğ": 4284,
      "##ısını": 4285,
      "belirlen": 4286,
      "doğr": 4287,
      "##AM": 4288,
      "şeklinde": 4289,
      "Sev": 4290,
      "##isan": 4291,
      "##ern": 4292,
      "işaret": 4293,
      "nokt": 4294,
      "hukuk": 4295,
      "##elerinde": 4296,
      "Genç": 4297,
      "Sam": 4298,
      "Millet": 4299,
      "ülke": 4300,
      "2015": 4301,
      "##bilecek": 4302,
      "du": 4303,
      "yav": 4304,
      "##ayi": 4305,
      "arasındaki": 4306,
      "list": 4307,
      "detay": 4308,
      "dos": 4309,
      "gru": 4310,
      "kelim": 4311,
      "ab": 4312,
      "sistemi": 4313,
      "##gisi": 4314,
      "başına": 4315,
      "Fakat": 4316,
      "daki": 4317,
      "##dikleri": 4318,
      "##spor": 4319,
      "##lerce": 4320,
      "##malıdır": 4321,
      "Başbakan": 4322,
      "##diş": 4323,
      "ey": 4324,
      "Mustafa": 4325,
      "##liğini": 4326,
      "Irak": 4327,
      "kaf": 4328,
      "##iyim": 4329,
      "adlı": 4330,
      "##AY": 4331,
      "görüntü": 4332,
      "kab": 4333,
      "imza": 4334,
      "örgüt": 4335,
      "##EM": 4336,
      "ham": 4337,
      "tamamen": 4338,
      "Beş": 4339,
      "cam": 4340,
      "sol": 4341,
      "fakat": 4342,
      "Bah": 4343,
      "artır": 4344,
      "bi": 4345,
      "aldığı": 4346,
      "buna": 4347,
      "Et": 4348,
      "tüket": 4349,
      "Tel": 4350,
      "belki": 4351,
      "##tıyor": 4352,
      "##lüyor": 4353,
      "##emal": 4354,
      "dep": 4355,
      "##retim": 4356,
      "iletişim": 4357,
      "##alan": 4358,
      "##dek": 4359,
      "##ati": 4360,
      "##fak": 4361,
      "##oda": 4362,
      "bilgiler": 4363,
      "##üle": 4364,
      "Güven": 4365,
      "çift": 4366,
      "##asa": 4367,
      "##tın": 4368,
      "for": 4369,
      "##uzey": 4370,
      "##’ya": 4371,
      "##nun": 4372,
      "katılım": 4373,
      "Ekim": 4374,
      "##lığın": 4375,
      "şans": 4376,
      "27": 4377,
      "kira": 4378,
      "26": 4379,
      "Mayıs": 4380,
      "Müdürlüğü": 4381,
      "edilm": 4382,
      "bizi": 4383,
      "İslam": 4384,
      "varsa": 4385,
      "yapacağ": 4386,
      "kullanılan": 4387,
      "Yüksek": 4388,
      "tanım": 4389,
      "##ukarı": 4390,
      "beri": 4391,
      "basın": 4392,
      "Haziran": 4393,
      "kullanım": 4394,
      "##ladığı": 4395,
      "##’dan": 4396,
      "gar": 4397,
      "##ydı": 4398,
      "yılı": 4399,
      "tip": 4400,
      "yapma": 4401,
      "Yak": 4402,
      "Mal": 4403,
      "cihaz": 4404,
      "##sta": 4405,
      "soğ": 4406,
      "hayvan": 4407,
      "Bunu": 4408,
      "##rafik": 4409,
      "kuş": 4410,
      "##ucu": 4411,
      "##uç": 4412,
      "olmadığını": 4413,
      "##diğinde": 4414,
      "Mak": 4415,
      "ciddi": 4416,
      "person": 4417,
      "meydana": 4418,
      "##ünüz": 4419,
      "ateş": 4420,
      "De": 4421,
      "bes": 4422,
      "aslında": 4423,
      "amacıyla": 4424,
      "şah": 4425,
      "##iydi": 4426,
      "etkil": 4427,
      "yaptır": 4428,
      "##isel": 4429,
      "haline": 4430,
      "edildi": 4431,
      "##sine": 4432,
      "##eceğiniz": 4433,
      "##’den": 4434,
      "düzey": 4435,
      "düzenlen": 4436,
      "kurt": 4437,
      "##lamaz": 4438,
      "##bo": 4439,
      "##imler": 4440,
      "##ân": 4441,
      "Hem": 4442,
      "öğretmen": 4443,
      "sebeb": 4444,
      "servis": 4445,
      "##uvvet": 4446,
      "Pol": 4447,
      "eğer": 4448,
      "yi": 4449,
      "##atürk": 4450,
      "##neği": 4451,
      "bağlantı": 4452,
      "##eşil": 4453,
      "nerede": 4454,
      "oluşan": 4455,
      "deniz": 4456,
      "##ras": 4457,
      "Burada": 4458,
      "198": 4459,
      "##mar": 4460,
      "Kit": 4461,
      "Prof": 4462,
      "##brıs": 4463,
      "isten": 4464,
      "sorum": 4465,
      "CHP": 4466,
      "##engin": 4467,
      "##lığa": 4468,
      "##’nde": 4469,
      "teklif": 4470,
      "alma": 4471,
      "Çalış": 4472,
      "##ınızı": 4473,
      "##ören": 4474,
      "##ia": 4475,
      "str": 4476,
      "##İK": 4477,
      "ark": 4478,
      "Ocak": 4479,
      "Bas": 4480,
      "eser": 4481,
      "##rac": 4482,
      "##çev": 4483,
      "yazar": 4484,
      "##inç": 4485,
      "Cumhuriyet": 4486,
      "##lıklar": 4487,
      "##ud": 4488,
      "##blem": 4489,
      "gerektiğini": 4490,
      "Yönetim": 4491,
      "Kim": 4492,
      "2014": 4493,
      "Bul": 4494,
      "hatta": 4495,
      "ihtiyac": 4496,
      "##emizde": 4497,
      "##ücü": 4498,
      "##elikle": 4499,
      "katkı": 4500,
      "Fak": 4501,
      "##düm": 4502,
      "savun": 4503,
      "##dıktan": 4504,
      "##lulu": 4505,
      "yoktur": 4506,
      "##hal": 4507,
      "##altı": 4508,
      "lira": 4509,
      "##’nun": 4510,
      "çer": 4511,
      "iler": 4512,
      "Sadece": 4513,
      "bilgisayar": 4514,
      "dünyanın": 4515,
      "gol": 4516,
      "siyasi": 4517,
      "doktor": 4518,
      "vurgu": 4519,
      "satın": 4520,
      "başvur": 4521,
      "insanların": 4522,
      "key": 4523,
      "Kır": 4524,
      "##siy": 4525,
      "##larca": 4526,
      "##one": 4527,
      "web": 4528,
      "vaz": 4529,
      "kent": 4530,
      "sayf": 4531,
      "##ımda": 4532,
      "sözleş": 4533,
      "önceki": 4534,
      "yana": 4535,
      "##laka": 4536,
      "teslim": 4537,
      "##teki": 4538,
      "Kıbrıs": 4539,
      "##adan": 4540,
      "##üslüm": 4541,
      "Ahmet": 4542,
      "##tiğimiz": 4543,
      "##UR": 4544,
      "kims": 4545,
      "üz": 4546,
      "müzik": 4547,
      "İşte": 4548,
      "ediyorum": 4549,
      "29": 4550,
      "##50": 4551,
      "uğr": 4552,
      "işi": 4553,
      "##etr": 4554,
      "Ağ": 4555,
      "##işi": 4556,
      "Sal": 4557,
      "açı": 4558,
      "kapı": 4559,
      "merak": 4560,
      "Dış": 4561,
      "tec": 4562,
      "aracı": 4563,
      "emek": 4564,
      "yarış": 4565,
      "hisse": 4566,
      "dek": 4567,
      "süreç": 4568,
      "Aş": 4569,
      "se": 4570,
      "##ind": 4571,
      "durumu": 4572,
      "hala": 4573,
      "sohbet": 4574,
      "##masından": 4575,
      "la": 4576,
      "etme": 4577,
      "araya": 4578,
      "##üme": 4579,
      "yapacak": 4580,
      "sabah": 4581,
      "Nisan": 4582,
      "##ısına": 4583,
      "Diğer": 4584,
      "##abilecek": 4585,
      "içine": 4586,
      "##aşa": 4587,
      "dönemde": 4588,
      "otel": 4589,
      "rol": 4590,
      "##forman": 4591,
      "bağım": 4592,
      "##yım": 4593,
      "karak": 4594,
      "Kr": 4595,
      "onları": 4596,
      "Lis": 4597,
      "Atatürk": 4598,
      "##lanacak": 4599,
      "edilir": 4600,
      "Tarih": 4601,
      "##etik": 4602,
      "tehlik": 4603,
      "stan": 4604,
      "##fi": 4605,
      "##amız": 4606,
      "ilaç": 4607,
      "##uar": 4608,
      "alacak": 4609,
      "Sar": 4610,
      "yaşayan": 4611,
      "ro": 4612,
      "##imli": 4613,
      "ic": 4614,
      "##OR": 4615,
      "kalk": 4616,
      "ıs": 4617,
      "uyar": 4618,
      "##kası": 4619,
      "Sosyal": 4620,
      "altına": 4621,
      "ödül": 4622,
      "kişiler": 4623,
      "bulundu": 4624,
      "Ga": 4625,
      "##gen": 4626,
      "düşük": 4627,
      "##lanıyor": 4628,
      "lazım": 4629,
      "##lerdir": 4630,
      "akıl": 4631,
      "aktar": 4632,
      "##işleri": 4633,
      "##go": 4634,
      "defa": 4635,
      "başvuru": 4636,
      "seviy": 4637,
      "Demir": 4638,
      "Yaz": 4639,
      "uluslararası": 4640,
      "Firma": 4641,
      "fir": 4642,
      "koşul": 4643,
      "arama": 4644,
      "çevir": 4645,
      "dağ": 4646,
      "Ken": 4647,
      "beyaz": 4648,
      "emin": 4649,
      "##zı": 4650,
      "alınan": 4651,
      "hâ": 4652,
      "kararı": 4653,
      "günlük": 4654,
      "##onik": 4655,
      "St": 4656,
      "##vekili": 4657,
      "koru": 4658,
      "günde": 4659,
      "hayal": 4660,
      "##ON": 4661,
      "yoksa": 4662,
      "halde": 4663,
      "eğlen": 4664,
      "##duğunu": 4665,
      "##mız": 4666,
      "ileri": 4667,
      "görmek": 4668,
      "##tığını": 4669,
      "Cumhurbaşkanı": 4670,
      "##cağız": 4671,
      "yeterli": 4672,
      "31": 4673,
      "sonrası": 4674,
      "başlayan": 4675,
      "Birliği": 4676,
      "idar": 4677,
      "kullanıl": 4678,
      "eksik": 4679,
      "ayında": 4680,
      "##ansız": 4681,
      "sürec": 4682,
      "tesis": 4683,
      "Kend": 4684,
      "##hend": 4685,
      "re": 4686,
      "miktar": 4687,
      "##cağım": 4688,
      "##rin": 4689,
      "mücadele": 4690,
      "video": 4691,
      "çerçev": 4692,
      "Özellikle": 4693,
      "Proj": 4694,
      "oyna": 4695,
      "Kadın": 4696,
      "Sağlık": 4697,
      "problem": 4698,
      "##ütfen": 4699,
      "Aynı": 4700,
      "iddia": 4701,
      "##line": 4702,
      "##eksiyon": 4703,
      "Se": 4704,
      "##leti": 4705,
      "Yayın": 4706,
      "##taki": 4707,
      "##lığına": 4708,
      "sonuc": 4709,
      "##ılabilir": 4710,
      "##mayacak": 4711,
      "Halk": 4712,
      "ten": 4713,
      "##cılar": 4714,
      "toprak": 4715,
      "olmaya": 4716,
      "kimse": 4717,
      "Kültür": 4718,
      "##LAR": 4719,
      "çarp": 4720,
      "##enüz": 4721,
      "Rusya": 4722,
      "##eğen": 4723,
      "Almanya": 4724,
      "ettik": 4725,
      "##madı": 4726,
      "belirten": 4727,
      "önünde": 4728,
      "kart": 4729,
      "değişiklik": 4730,
      "memnun": 4731,
      "##gesi": 4732,
      "##lasyon": 4733,
      "Oda": 4734,
      "edece": 4735,
      "##ilecek": 4736,
      "boyut": 4737,
      "kayde": 4738,
      "teknoloj": 4739,
      "##ınıza": 4740,
      "##ku": 4741,
      "özgür": 4742,
      "##eceğiz": 4743,
      "##itesi": 4744,
      "##say": 4745,
      "##üler": 4746,
      "##iliyor": 4747,
      "sayısı": 4748,
      "Amerik": 4749,
      "##meniz": 4750,
      "Müdürü": 4751,
      "##etler": 4752,
      "2013": 4753,
      "Kam": 4754,
      "bulunuyor": 4755,
      "malzem": 4756,
      "##lisi": 4757,
      "Kız": 4758,
      "Ka": 4759,
      "Amerika": 4760,
      "Bor": 4761,
      "##lev": 4762,
      "bula": 4763,
      "Br": 4764,
      "##ke": 4765,
      "marka": 4766,
      "olursa": 4767,
      "sıkıntı": 4768,
      "##deniz": 4769,
      "söylüyor": 4770,
      "ettiğ": 4771,
      "Aralık": 4772,
      "sefer": 4773,
      "makin": 4774,
      "##mızı": 4775,
      "##ımıza": 4776,
      "normal": 4777,
      "tarif": 4778,
      "parç": 4779,
      "başında": 4780,
      "##rek": 4781,
      "##lusal": 4782,
      "sene": 4783,
      "##inizin": 4784,
      "çal": 4785,
      "Can": 4786,
      "konuşma": 4787,
      "demok": 4788,
      "##ğust": 4789,
      "orada": 4790,
      "anlay": 4791,
      "fak": 4792,
      "Kö": 4793,
      "##İM": 4794,
      "##ratik": 4795,
      "##aliz": 4796,
      "trans": 4797,
      "lider": 4798,
      "içeri": 4799,
      "bulunmaktadır": 4800,
      "Osmanlı": 4801,
      "şiir": 4802,
      "ünlü": 4803,
      "##orta": 4804,
      "##med": 4805,
      "buluş": 4806,
      "Çin": 4807,
      "borç": 4808,
      "##muştur": 4809,
      "60": 4810,
      "düşünc": 4811,
      "çat": 4812,
      "artış": 4813,
      "işe": 4814,
      "##neğin": 4815,
      "Ülk": 4816,
      "##lenme": 4817,
      "##pek": 4818,
      "##dam": 4819,
      "Gül": 4820,
      "yem": 4821,
      "##üyle": 4822,
      "##geç": 4823,
      "kala": 4824,
      "sur": 4825,
      "Bağ": 4826,
      "zengin": 4827,
      "##ete": 4828,
      "##veriş": 4829,
      "Hizmet": 4830,
      "Kurul": 4831,
      "##par": 4832,
      "##evizyon": 4833,
      "ticaret": 4834,
      "mücadel": 4835,
      "resmi": 4836,
      "deste": 4837,
      "Sür": 4838,
      "##ğustos": 4839,
      "mekan": 4840,
      "##enler": 4841,
      "hap": 4842,
      "##egor": 4843,
      "##ilendir": 4844,
      "yandan": 4845,
      "güncel": 4846,
      "##AŞ": 4847,
      "2012": 4848,
      "##lardı": 4849,
      "yı": 4850,
      "bitir": 4851,
      "durumunda": 4852,
      "performan": 4853,
      "kadro": 4854,
      "etmiş": 4855,
      "devr": 4856,
      "##rail": 4857,
      "##ırken": 4858,
      "kredi": 4859,
      "##zu": 4860,
      "##İT": 4861,
      "pan": 4862,
      "Per": 4863,
      "##niyet": 4864,
      "##best": 4865,
      "motor": 4866,
      "##dun": 4867,
      "##edim": 4868,
      "Türkiye’nin": 4869,
      "hisset": 4870,
      "asla": 4871,
      "##amı": 4872,
      "saldırı": 4873,
      "Oyun": 4874,
      "risk": 4875,
      "##ard": 4876,
      "olmadığı": 4877,
      "tedavi": 4878,
      "ayır": 4879,
      "Yer": 4880,
      "acı": 4881,
      "##istik": 4882,
      "min": 4883,
      "kısm": 4884,
      "Program": 4885,
      "mük": 4886,
      "ayar": 4887,
      "şid": 4888,
      "Müz": 4889,
      "dağı": 4890,
      "##üph": 4891,
      "##terek": 4892,
      "etkili": 4893,
      "eleştir": 4894,
      "fikir": 4895,
      "karakter": 4896,
      "Gazet": 4897,
      "soy": 4898,
      "##ımızı": 4899,
      "##izik": 4900,
      "##yonel": 4901,
      "##sul": 4902,
      "500": 4903,
      "onay": 4904,
      "##eyle": 4905,
      "Film": 4906,
      "hizmeti": 4907,
      "numara": 4908,
      "onların": 4909,
      "kurtar": 4910,
      "Yunan": 4911,
      "Dan": 4912,
      "şarkı": 4913,
      "test": 4914,
      "##içek": 4915,
      "##sef": 4916,
      "##ly": 4917,
      "poz": 4918,
      "Kemal": 4919,
      "dolu": 4920,
      "deki": 4921,
      "##son": 4922,
      "yansı": 4923,
      "##seniz": 4924,
      "sırada": 4925,
      "enerji": 4926,
      "yapılması": 4927,
      "Dav": 4928,
      "##ısının": 4929,
      "fırsat": 4930,
      "edilmesi": 4931,
      "##gam": 4932,
      "Sor": 4933,
      "kok": 4934,
      "##kenin": 4935,
      "işte": 4936,
      "sayı": 4937,
      "##ılmaz": 4938,
      "Fener": 4939,
      "form": 4940,
      "##imizde": 4941,
      "##ağa": 4942,
      "##cort": 4943,
      "veriyor": 4944,
      "gül": 4945,
      "##fesyonel": 4946,
      "pak": 4947,
      "##bay": 4948,
      "Fat": 4949,
      "##larınızı": 4950,
      "Sır": 4951,
      "##ullah": 4952,
      "uc": 4953,
      "etkinlik": 4954,
      "sayfa": 4955,
      "##omobil": 4956,
      "Açık": 4957,
      "bat": 4958,
      "Bazı": 4959,
      "##sini": 4960,
      "eğit": 4961,
      "bundan": 4962,
      "##abet": 4963,
      "mutlaka": 4964,
      "merkezi": 4965,
      "##elerden": 4966,
      "kural": 4967,
      "görüyor": 4968,
      "Öğren": 4969,
      "##str": 4970,
      "##eliğ": 4971,
      "Bana": 4972,
      "medya": 4973,
      "kendisine": 4974,
      "##ulması": 4975,
      "Onun": 4976,
      "kaliteli": 4977,
      "elektrik": 4978,
      "bebek": 4979,
      "Fakült": 4980,
      "##eyn": 4981,
      "tane": 4982,
      "operasyon": 4983,
      "Part": 4984,
      "##ıma": 4985,
      "Sh": 4986,
      "Suriye": 4987,
      "derin": 4988,
      "fon": 4989,
      "##tiler": 4990,
      "##meni": 4991,
      "##ult": 4992,
      "yeri": 4993,
      "##ulan": 4994,
      "Ağustos": 4995,
      "rahatsız": 4996,
      "ekran": 4997,
      "İyi": 4998,
      "##hendis": 4999,
      "##’i": 5000,
      "Ba": 5001,
      "ederim": 5002,
      "##ğın": 5003,
      "##era": 5004,
      "olun": 5005,
      "girişim": 5006,
      "davet": 5007,
      "sunu": 5008,
      "Dur": 5009,
      "##aza": 5010,
      "##tere": 5011,
      "Tay": 5012,
      "onlar": 5013,
      "sonrasında": 5014,
      "Gir": 5015,
      "sayıda": 5016,
      "esas": 5017,
      "personel": 5018,
      "##dart": 5019,
      "Sab": 5020,
      "bl": 5021,
      "##nak": 5022,
      "cep": 5023,
      "##asıyla": 5024,
      "##uzur": 5025,
      "Hastan": 5026,
      "##öğ": 5027,
      "tas": 5028,
      "##üper": 5029,
      "Büyükşehir": 5030,
      "##ene": 5031,
      "Uluslararası": 5032,
      "##ST": 5033,
      "belirtti": 5034,
      "İki": 5035,
      "##umsuz": 5036,
      "Şubat": 5037,
      "öğrenciler": 5038,
      "çalışıyor": 5039,
      "##ciler": 5040,
      "kaydet": 5041,
      "##atör": 5042,
      "kampan": 5043,
      "Diy": 5044,
      "Sonra": 5045,
      "aile": 5046,
      "##iri": 5047,
      "Müslüm": 5048,
      "##ilmiştir": 5049,
      "##bur": 5050,
      "##laşma": 5051,
      "##kadem": 5052,
      "sizlere": 5053,
      "Sayın": 5054,
      "mark": 5055,
      "Sanat": 5056,
      "doldur": 5057,
      "Araş": 5058,
      "##hat": 5059,
      "hikay": 5060,
      "##iktaş": 5061,
      "sap": 5062,
      "adres": 5063,
      "dışı": 5064,
      "##âr": 5065,
      "##yıl": 5066,
      "bahis": 5067,
      "sağlamak": 5068,
      "aray": 5069,
      "beğen": 5070,
      "zam": 5071,
      "ül": 5072,
      "35": 5073,
      "Gök": 5074,
      "yıldı": 5075,
      "##bahçe": 5076,
      "yerleş": 5077,
      "yaşında": 5078,
      "henüz": 5079,
      "tartış": 5080,
      "dışarı": 5081,
      "##cil": 5082,
      "aşk": 5083,
      "Antalya": 5084,
      "##adi": 5085,
      "birey": 5086,
      "İh": 5087,
      "tabi": 5088,
      "kop": 5089,
      "##memiş": 5090,
      "çocuğ": 5091,
      "Hol": 5092,
      "başlat": 5093,
      "##iyah": 5094,
      "##LER": 5095,
      "gay": 5096,
      "##ital": 5097,
      "aylık": 5098,
      "güc": 5099,
      "keş": 5100,
      "##gili": 5101,
      "yaşanan": 5102,
      "Belki": 5103,
      "yavaş": 5104,
      "nüf": 5105,
      "eylem": 5106,
      "tutuk": 5107,
      "##20": 5108,
      "day": 5109,
      "uçak": 5110,
      "olmas": 5111,
      "Türkçe": 5112,
      "##gör": 5113,
      "alanında": 5114,
      "yapmış": 5115,
      "Sistem": 5116,
      "##siye": 5117,
      "ap": 5118,
      "##ücu": 5119,
      "Türkiye’de": 5120,
      "dam": 5121,
      "İsrail": 5122,
      "seçenek": 5123,
      "müda": 5124,
      "benz": 5125,
      "ilgi": 5126,
      "hayır": 5127,
      "##ileş": 5128,
      "yada": 5129,
      "##mayın": 5130,
      "yönetic": 5131,
      "deneyim": 5132,
      "po": 5133,
      "##ger": 5134,
      "##lenmesi": 5135,
      "döv": 5136,
      "karşısında": 5137,
      "##hi": 5138,
      "##dıklarını": 5139,
      "belirterek": 5140,
      "##ivil": 5141,
      "yıldır": 5142,
      "##ımızda": 5143,
      "##tuk": 5144,
      "cil": 5145,
      "oto": 5146,
      "Tes": 5147,
      "nes": 5148,
      "Fr": 5149,
      "reklam": 5150,
      "##ülü": 5151,
      "##dikten": 5152,
      "##artesi": 5153,
      "sağlıklı": 5154,
      "İran": 5155,
      "##ork": 5156,
      "Beşiktaş": 5157,
      "İk": 5158,
      "Köy": 5159,
      "Göz": 5160,
      "altı": 5161,
      "sem": 5162,
      "yapılır": 5163,
      "##Ä±": 5164,
      "anne": 5165,
      "##esindeki": 5166,
      "##miyorum": 5167,
      "başlan": 5168,
      "esn": 5169,
      "##muyor": 5170,
      "##larımızın": 5171,
      "yayım": 5172,
      "yukarı": 5173,
      "Yüz": 5174,
      "##latasar": 5175,
      "açıklamada": 5176,
      "##ümüzde": 5177,
      "Peki": 5178,
      "##aka": 5179,
      "##to": 5180,
      "ücretsiz": 5181,
      "##tern": 5182,
      "hükümet": 5183,
      "##ediy": 5184,
      "197": 5185,
      "##ED": 5186,
      "neler": 5187,
      "##LI": 5188,
      "bal": 5189,
      "##latasaray": 5190,
      "birisi": 5191,
      "##onya": 5192,
      "mec": 5193,
      "Seç": 5194,
      "##’nda": 5195,
      "Bütün": 5196,
      "değerli": 5197,
      "Fa": 5198,
      "##ou": 5199,
      "##sim": 5200,
      "çalışmaları": 5201,
      "izley": 5202,
      "kendine": 5203,
      "heyec": 5204,
      "##AP": 5205,
      "##imar": 5206,
      "gösteren": 5207,
      "##şey": 5208,
      "##esiz": 5209,
      "##asından": 5210,
      "buraya": 5211,
      "##resi": 5212,
      "pas": 5213,
      "##yse": 5214,
      "Bal": 5215,
      "##yen": 5216,
      "yetkil": 5217,
      "##edeki": 5218,
      "araştır": 5219,
      "alanda": 5220,
      "Güney": 5221,
      "##ımızın": 5222,
      "##lediği": 5223,
      "##larımızı": 5224,
      "##layıp": 5225,
      "duygu": 5226,
      "onlara": 5227,
      "##atej": 5228,
      "Bursa": 5229,
      "hüc": 5230,
      "##zon": 5231,
      "##İY": 5232,
      "mobil": 5233,
      "kaldı": 5234,
      "olduğuna": 5235,
      "yazılı": 5236,
      "eve": 5237,
      "proje": 5238,
      "##ayla": 5239,
      "Eski": 5240,
      "madd": 5241,
      "##adaki": 5242,
      "##layın": 5243,
      "süt": 5244,
      "##UL": 5245,
      "tahmin": 5246,
      "yaparak": 5247,
      "Yet": 5248,
      "sağlar": 5249,
      "kanal": 5250,
      "oyunu": 5251,
      "bunlar": 5252,
      "Ber": 5253,
      "piş": 5254,
      "öden": 5255,
      "Gerçek": 5256,
      "Teknik": 5257,
      "olmuştur": 5258,
      "##ahim": 5259,
      "Hayır": 5260,
      "Hiç": 5261,
      "eşya": 5262,
      "TÜ": 5263,
      "Mahalle": 5264,
      "##dit": 5265,
      "Ticaret": 5266,
      "##cisi": 5267,
      "ettir": 5268,
      "##racat": 5269,
      "##sem": 5270,
      "ikti": 5271,
      "Dön": 5272,
      "alarak": 5273,
      "alanı": 5274,
      "Derneği": 5275,
      "güneş": 5276,
      "45": 5277,
      "##eygam": 5278,
      "Galatasaray": 5279,
      "##rika": 5280,
      "Gazi": 5281,
      "kür": 5282,
      "##ündeki": 5283,
      "Go": 5284,
      "diş": 5285,
      "takdir": 5286,
      "2006": 5287,
      "işbir": 5288,
      "Çev": 5289,
      "başta": 5290,
      "##estiv": 5291,
      "dünyada": 5292,
      "Üst": 5293,
      "##ınızda": 5294,
      "musun": 5295,
      "##’ı": 5296,
      "bilir": 5297,
      "##anan": 5298,
      "konum": 5299,
      "zev": 5300,
      "yapmaya": 5301,
      "sitesi": 5302,
      "##oca": 5303,
      "2011": 5304,
      "hastalık": 5305,
      "meslek": 5306,
      "dök": 5307,
      "Değ": 5308,
      "Aydın": 5309,
      "##ron": 5310,
      "##ham": 5311,
      "ür": 5312,
      "gide": 5313,
      "sonraki": 5314,
      "yanıt": 5315,
      "düşür": 5316,
      "##sinin": 5317,
      "yerinde": 5318,
      "##rüb": 5319,
      "Az": 5320,
      "##çak": 5321,
      "sağlayan": 5322,
      "##ura": 5323,
      "Sat": 5324,
      "şiddet": 5325,
      "##maktan": 5326,
      "##ipar": 5327,
      "not": 5328,
      "##tarı": 5329,
      "##sas": 5330,
      "Fenerbahçe": 5331,
      "meş": 5332,
      "yeter": 5333,
      "uygulan": 5334,
      "Fakültesi": 5335,
      "##’te": 5336,
      "Mur": 5337,
      "Bankası": 5338,
      "işç": 5339,
      "##liğe": 5340,
      "faiz": 5341,
      "öne": 5342,
      "Küçük": 5343,
      "Kullan": 5344,
      "No": 5345,
      "##liğinde": 5346,
      "almış": 5347,
      "olumsuz": 5348,
      "döneminde": 5349,
      "alb": 5350,
      "80": 5351,
      "önüne": 5352,
      "politik": 5353,
      "yerleştir": 5354,
      "bed": 5355,
      "##ıştır": 5356,
      "Yardımcısı": 5357,
      "The": 5358,
      "giden": 5359,
      "kıy": 5360,
      "##liğin": 5361,
      "İngiltere": 5362,
      "Kürt": 5363,
      "##tepe": 5364,
      "##emey": 5365,
      "erken": 5366,
      "kuvvet": 5367,
      "Fil": 5368,
      "##inizde": 5369,
      "huzur": 5370,
      "##ılmıştır": 5371,
      "ted": 5372,
      "Hayat": 5373,
      "90": 5374,
      "def": 5375,
      "Bab": 5376,
      "arası": 5377,
      "tutar": 5378,
      "Lig": 5379,
      "##mür": 5380,
      "##dağ": 5381,
      "yaşama": 5382,
      "büt": 5383,
      "Cen": 5384,
      "##diklerini": 5385,
      "müdür": 5386,
      "yiy": 5387,
      "hayatını": 5388,
      "##uc": 5389,
      "serbest": 5390,
      "taz": 5391,
      "Senin": 5392,
      "sona": 5393,
      "şik": 5394,
      "öğrenci": 5395,
      "Dair": 5396,
      "##ersin": 5397,
      "Yat": 5398,
      "hafif": 5399,
      "bol": 5400,
      "ces": 5401,
      "##eygamber": 5402,
      "şüph": 5403,
      "Eş": 5404,
      "eg": 5405,
      "alıp": 5406,
      "##ılabil": 5407,
      "##elerinden": 5408,
      "##memiz": 5409,
      "taşın": 5410,
      "##ise": 5411,
      "harika": 5412,
      "Vak": 5413,
      "##tuğ": 5414,
      "##ımın": 5415,
      "Araştırma": 5416,
      "##ledi": 5417,
      "Val": 5418,
      "##elç": 5419,
      "Te": 5420,
      "##nam": 5421,
      "pen": 5422,
      "sokak": 5423,
      "ödeme": 5424,
      "05": 5425,
      "##ze": 5426,
      "##iber": 5427,
      "kesinlikle": 5428,
      "yıllarda": 5429,
      "##err": 5430,
      "politika": 5431,
      "##kar": 5432,
      "kullanarak": 5433,
      "etmeye": 5434,
      "Ürün": 5435,
      "##DE": 5436,
      "##form": 5437,
      "içi": 5438,
      "türk": 5439,
      "Buna": 5440,
      "Samsun": 5441,
      "Cam": 5442,
      "##ros": 5443,
      "##lal": 5444,
      "##inal": 5445,
      "Hava": 5446,
      "kanı": 5447,
      "##tak": 5448,
      "ülkenin": 5449,
      "##elerle": 5450,
      "İngilizce": 5451,
      "üye": 5452,
      "Fransa": 5453,
      "sert": 5454,
      "gördüğ": 5455,
      "Düz": 5456,
      "atı": 5457,
      "##dat": 5458,
      "##abzon": 5459,
      "##lamış": 5460,
      "profesyonel": 5461,
      "doğum": 5462,
      "otomobil": 5463,
      "Doğu": 5464,
      "##biyat": 5465,
      "birinci": 5466,
      "##lendi": 5467,
      "vazgeç": 5468,
      "Ya": 5469,
      "Re": 5470,
      "Ap": 5471,
      "70": 5472,
      "Çan": 5473,
      "yasa": 5474,
      "arac": 5475,
      "##raman": 5476,
      "##va": 5477,
      "Gö": 5478,
      "düğ": 5479,
      "##emmel": 5480,
      "yaşındaki": 5481,
      "ışık": 5482,
      "baba": 5483,
      "##malar": 5484,
      "gerekmektedir": 5485,
      "##tis": 5486,
      "edebil": 5487,
      "gal": 5488,
      "be": 5489,
      "##lerim": 5490,
      "bağımsız": 5491,
      "sil": 5492,
      "post": 5493,
      "“A": 5494,
      "##yip": 5495,
      "Bizim": 5496,
      "##ısır": 5497,
      "##anet": 5498,
      "şaş": 5499,
      "##ore": 5500,
      "peş": 5501,
      "##’ta": 5502,
      "duyur": 5503,
      "Yine": 5504,
      "çoğu": 5505,
      "##ildiği": 5506,
      "##pa": 5507,
      "çap": 5508,
      "bilgileri": 5509,
      "New": 5510,
      "##ekim": 5511,
      "fil": 5512,
      "##ses": 5513,
      "sonucunda": 5514,
      "##amam": 5515,
      "psik": 5516,
      "insanın": 5517,
      "AKP": 5518,
      "##ebilecek": 5519,
      "ton": 5520,
      "bunların": 5521,
      "Bilg": 5522,
      "baskı": 5523,
      "kurtul": 5524,
      "Alan": 5525,
      "parti": 5526,
      "##haba": 5527,
      "resim": 5528,
      "programı": 5529,
      "Yılmaz": 5530,
      "hayata": 5531,
      "##ılış": 5532,
      "tatil": 5533,
      "Ham": 5534,
      "basit": 5535,
      "yerel": 5536,
      "kilo": 5537,
      "standart": 5538,
      "gören": 5539,
      "enf": 5540,
      "##IR": 5541,
      "ürünleri": 5542,
      "davranış": 5543,
      "rad": 5544,
      "Kah": 5545,
      "##elt": 5546,
      "bunları": 5547,
      "misin": 5548,
      "tarz": 5549,
      "ata": 5550,
      "kategor": 5551,
      "askeri": 5552,
      "Neden": 5553,
      "kazandır": 5554,
      "yılda": 5555,
      "##har": 5556,
      "çıkış": 5557,
      "olumlu": 5558,
      "##irken": 5559,
      "araba": 5560,
      "Güzel": 5561,
      "arab": 5562,
      "dakik": 5563,
      "##sizlik": 5564,
      "yaka": 5565,
      "Artık": 5566,
      "kavram": 5567,
      "##latform": 5568,
      "##unları": 5569,
      "duvar": 5570,
      "üçüncü": 5571,
      "##larındaki": 5572,
      "altın": 5573,
      "Li": 5574,
      "yazılım": 5575,
      "##lığının": 5576,
      "36": 5577,
      "##elidir": 5578,
      "pop": 5579,
      "##ons": 5580,
      "tecrüb": 5581,
      "ihti": 5582,
      "bazen": 5583,
      "olmasına": 5584,
      "korun": 5585,
      "isimli": 5586,
      "sorunu": 5587,
      "tören": 5588,
      "lütfen": 5589,
      "lim": 5590,
      "yolc": 5591,
      "##cilik": 5592,
      "##mit": 5593,
      "katıl": 5594,
      "Meclis": 5595,
      "##diğin": 5596,
      "##gulama": 5597,
      "01": 5598,
      "ediyoruz": 5599,
      "Yol": 5600,
      "alışveriş": 5601,
      "bakan": 5602,
      "Den": 5603,
      "atan": 5604,
      "##mamız": 5605,
      "##iyiz": 5606,
      "##ezz": 5607,
      "##ultan": 5608,
      "the": 5609,
      "##dal": 5610,
      "cen": 5611,
      "başlar": 5612,
      "Tam": 5613,
      "Trabzon": 5614,
      "günlerde": 5615,
      "##ww": 5616,
      "##ink": 5617,
      "vücu": 5618,
      "##iyatro": 5619,
      "##lenmiş": 5620,
      "##mesinin": 5621,
      "Kaz": 5622,
      "##liler": 5623,
      "edilmiş": 5624,
      "##isin": 5625,
      "##iyorlar": 5626,
      "Bölüm": 5627,
      "Ün": 5628,
      "yetiş": 5629,
      "nedir": 5630,
      "zorun": 5631,
      "Haf": 5632,
      "##isinden": 5633,
      "çocuklar": 5634,
      "ez": 5635,
      "##mur": 5636,
      "yor": 5637,
      "196": 5638,
      "##lanmıştır": 5639,
      "amel": 5640,
      "yapabil": 5641,
      "lisans": 5642,
      "##arım": 5643,
      "##ılarak": 5644,
      "gaz": 5645,
      "Gür": 5646,
      "del": 5647,
      "##yası": 5648,
      "Sah": 5649,
      "##liye": 5650,
      "televizyon": 5651,
      "üyesi": 5652,
      "aya": 5653,
      "dosya": 5654,
      "##erken": 5655,
      "eşit": 5656,
      "##liğine": 5657,
      "kendisini": 5658,
      "##iyordu": 5659,
      "yola": 5660,
      "ren": 5661,
      "##iği": 5662,
      "edip": 5663,
      "nef": 5664,
      "Müslüman": 5665,
      "fiyatları": 5666,
      "park": 5667,
      "tavsiye": 5668,
      "##ond": 5669,
      "yıldız": 5670,
      "##lerinizi": 5671,
      "çalışmalar": 5672,
      "kaçır": 5673,
      "azal": 5674,
      "yetiştir": 5675,
      "yapıldı": 5676,
      "İlçe": 5677,
      "Şah": 5678,
      "Hep": 5679,
      "##leşme": 5680,
      "sahn": 5681,
      "Sana": 5682,
      "And": 5683,
      "şer": 5684,
      "##ogle": 5685,
      "köş": 5686,
      "anlamda": 5687,
      "sürede": 5688,
      "##are": 5689,
      "kendisi": 5690,
      "Ann": 5691,
      "##iyer": 5692,
      "##uğ": 5693,
      "Sak": 5694,
      "32": 5695,
      "sorumlu": 5696,
      "Böylece": 5697,
      "##âh": 5698,
      "Uzun": 5699,
      "kalp": 5700,
      "##ayıf": 5701,
      "Sin": 5702,
      "biçimde": 5703,
      "oranı": 5704,
      "arttır": 5705,
      "yararlan": 5706,
      "km": 5707,
      "Hüs": 5708,
      "taşıma": 5709,
      "giren": 5710,
      "şampiyon": 5711,
      "öğretim": 5712,
      "Mev": 5713,
      "##arken": 5714,
      "tanış": 5715,
      "Aslında": 5716,
      "kitab": 5717,
      "Pazar": 5718,
      "##urken": 5719,
      "##üstü": 5720,
      "aydın": 5721,
      "sine": 5722,
      "##ezer": 5723,
      "fizik": 5724,
      "##KK": 5725,
      "gizli": 5726,
      "##isiyle": 5727,
      "düşünüyorum": 5728,
      "evde": 5729,
      "www": 5730,
      "salon": 5731,
      "##obüs": 5732,
      "##izasyon": 5733,
      "##co": 5734,
      "##AB": 5735,
      "##uldu": 5736,
      "sunuyor": 5737,
      "Kıs": 5738,
      "Le": 5739,
      "##ğan": 5740,
      "kişisel": 5741,
      "Kuzey": 5742,
      "fi": 5743,
      "Güvenlik": 5744,
      "yılın": 5745,
      "performans": 5746,
      "Okul": 5747,
      "##her": 5748,
      "and": 5749,
      "Bayan": 5750,
      "olmadan": 5751,
      "ef": 5752,
      "ref": 5753,
      "##oyu": 5754,
      "olacağını": 5755,
      "Şirket": 5756,
      "Am": 5757,
      "Önc": 5758,
      "##sinde": 5759,
      "Üç": 5760,
      "verecek": 5761,
      "yalan": 5762,
      "09": 5763,
      "tez": 5764,
      "beden": 5765,
      "belirtilen": 5766,
      "istediğiniz": 5767,
      "çab": 5768,
      "##ack": 5769,
      "##gıç": 5770,
      "##avi": 5771,
      "kem": 5772,
      "Serv": 5773,
      "katıldı": 5774,
      "modern": 5775,
      "TV": 5776,
      "Kurum": 5777,
      "##’daki": 5778,
      "##rem": 5779,
      "Sek": 5780,
      "##orn": 5781,
      "##ücut": 5782,
      "ölçü": 5783,
      "2010": 5784,
      "edeceğ": 5785,
      "##başı": 5786,
      "##cusu": 5787,
      "ordu": 5788,
      "yasak": 5789,
      "##cer": 5790,
      "##uyorum": 5791,
      "##usunu": 5792,
      "ortalama": 5793,
      "##cık": 5794,
      "sahiptir": 5795,
      "paket": 5796,
      "geçti": 5797,
      "“S": 5798,
      "etraf": 5799,
      "sivil": 5800,
      "uğraş": 5801,
      "Firmaları": 5802,
      "Üy": 5803,
      "etmektedir": 5804,
      "saygı": 5805,
      "##hale": 5806,
      "vergi": 5807,
      "kıl": 5808,
      "##alim": 5809,
      "gem": 5810,
      "##çesi": 5811,
      "“K": 5812,
      "##yer": 5813,
      "milli": 5814,
      "gerektir": 5815,
      "yarı": 5816,
      "##bat": 5817,
      "asıl": 5818,
      "yalnızca": 5819,
      "yürüy": 5820,
      "02": 5821,
      "kans": 5822,
      "namaz": 5823,
      "red": 5824,
      "yaygın": 5825,
      "keyif": 5826,
      "zevk": 5827,
      "dahi": 5828,
      "kara": 5829,
      "Arka": 5830,
      "Amerikan": 5831,
      "cinsel": 5832,
      "bilinen": 5833,
      "bec": 5834,
      "##daşı": 5835,
      "durdur": 5836,
      "çıkıyor": 5837,
      "Beni": 5838,
      "olmasını": 5839,
      "hakkı": 5840,
      "kişilik": 5841,
      "Bayram": 5842,
      "gelmiş": 5843,
      "yüzünden": 5844,
      "##erseniz": 5845,
      "Onu": 5846,
      "açıkladı": 5847,
      "genellikle": 5848,
      "toplu": 5849,
      "##gal": 5850,
      "hata": 5851,
      "##ipariş": 5852,
      "##iyan": 5853,
      "Mas": 5854,
      "transfer": 5855,
      "Öğret": 5856,
      "dava": 5857,
      "kurulu": 5858,
      "mükemmel": 5859,
      "tatlı": 5860,
      "futbolcu": 5861,
      "biliyorum": 5862,
      "##erler": 5863,
      "düzenlem": 5864,
      "nedeni": 5865,
      "##ire": 5866,
      "öncesi": 5867,
      "kış": 5868,
      "aşırı": 5869,
      "ortadan": 5870,
      "mahk": 5871,
      "bahse": 5872,
      "Hakk": 5873,
      "Komisyon": 5874,
      "##ord": 5875,
      "##ersiz": 5876,
      "##urum": 5877,
      "##bette": 5878,
      "yapım": 5879,
      "odak": 5880,
      "Başkanlığı": 5881,
      "##süz": 5882,
      "Arap": 5883,
      "##lardaki": 5884,
      "Eur": 5885,
      "birini": 5886,
      "##book": 5887,
      "ifad": 5888,
      "avan": 5889,
      "kapalı": 5890,
      "bom": 5891,
      "ism": 5892,
      "##sında": 5893,
      "##ısız": 5894,
      "Tasar": 5895,
      "Bin": 5896,
      "2005": 5897,
      "##latı": 5898,
      "##ümüzdeki": 5899,
      "Ekonom": 5900,
      "Madde": 5901,
      "##’na": 5902,
      "Bat": 5903,
      "AN": 5904,
      "imkan": 5905,
      "stratej": 5906,
      "kapas": 5907,
      "danış": 5908,
      "##landa": 5909,
      "soruştur": 5910,
      "ide": 5911,
      "ihtiyacı": 5912,
      "istih": 5913,
      "##üny": 5914,
      "##emen": 5915,
      "##ag": 5916,
      "##uman": 5917,
      "terk": 5918,
      "ucuz": 5919,
      "kaydetti": 5920,
      "##ulmuş": 5921,
      "prot": 5922,
      "##kale": 5923,
      "Kitap": 5924,
      "bö": 5925,
      "çeken": 5926,
      "ısı": 5927,
      "kırmızı": 5928,
      "tuz": 5929,
      "mo": 5930,
      "üzerindeki": 5931,
      "konut": 5932,
      "pla": 5933,
      "Mic": 5934,
      "af": 5935,
      "anlamına": 5936,
      "ülkemiz": 5937,
      "kriz": 5938,
      "Taş": 5939,
      "İm": 5940,
      "Mut": 5941,
      "müşteri": 5942,
      "Örneğin": 5943,
      "Batı": 5944,
      "sp": 5945,
      "33": 5946,
      "##landığı": 5947,
      "Cez": 5948,
      "##ula": 5949,
      "kanun": 5950,
      "Tah": 5951,
      "olduğumuz": 5952,
      "geçerli": 5953,
      "grub": 5954,
      "itir": 5955,
      "##İS": 5956,
      "Elektr": 5957,
      "##ekt": 5958,
      "getiren": 5959,
      "Mod": 5960,
      "##kiler": 5961,
      "##irler": 5962,
      "Fransız": 5963,
      "##dığına": 5964,
      "kalma": 5965,
      "bekliyor": 5966,
      "Tat": 5967,
      "Şeh": 5968,
      "civ": 5969,
      "ha": 5970,
      "önlem": 5971,
      "uygula": 5972,
      "işin": 5973,
      "##UN": 5974,
      "çiçek": 5975,
      "##masıyla": 5976,
      "harca": 5977,
      "edebilir": 5978,
      "yeşil": 5979,
      "##layıcı": 5980,
      "göç": 5981,
      "yerini": 5982,
      "İkinci": 5983,
      "çay": 5984,
      "etmesi": 5985,
      "Kol": 5986,
      "yüzyıl": 5987,
      "Yas": 5988,
      "sağla": 5989,
      "##mada": 5990,
      "Var": 5991,
      "diyerek": 5992,
      "bulunma": 5993,
      "aşağıdaki": 5994,
      "buy": 5995,
      "barış": 5996,
      "##ayım": 5997,
      "##ong": 5998,
      "ilgilen": 5999,
      "Dir": 6000,
      "Hasan": 6001,
      "sik": 6002,
      "süresi": 6003,
      "##ukat": 6004,
      "ihracat": 6005,
      "imk": 6006,
      "hus": 6007,
      "##liyet": 6008,
      "Park": 6009,
      "##memek": 6010,
      "##icari": 6011,
      "siyaset": 6012,
      "Hüküm": 6013,
      "##yap": 6014,
      "karşılı": 6015,
      "ht": 6016,
      "##lari": 6017,
      "avantaj": 6018,
      "söylen": 6019,
      "Yıldır": 6020,
      "hesab": 6021,
      "beb": 6022,
      "Bek": 6023,
      "##IM": 6024,
      "kısmı": 6025,
      "Yok": 6026,
      "diren": 6027,
      "Rum": 6028,
      "##meyecek": 6029,
      "doğrudan": 6030,
      "##lığıyla": 6031,
      "##yet": 6032,
      "##ğında": 6033,
      "bon": 6034,
      "istik": 6035,
      "zayıf": 6036,
      "Nur": 6037,
      "##gaz": 6038,
      "2004": 6039,
      "##ancı": 6040,
      "##sey": 6041,
      "vakit": 6042,
      "li": 6043,
      "##ekil": 6044,
      "##emiş": 6045,
      "Şampiyon": 6046,
      "saha": 6047,
      "dolaş": 6048,
      "##İZ": 6049,
      "##ai": 6050,
      "gur": 6051,
      "gelin": 6052,
      "uyan": 6053,
      "Hz": 6054,
      "Seni": 6055,
      "diyen": 6056,
      "##hane": 6057,
      "##eytin": 6058,
      "gönül": 6059,
      "kişilerin": 6060,
      "Tanrı": 6061,
      "şif": 6062,
      "##imden": 6063,
      "düşman": 6064,
      "suyu": 6065,
      "ima": 6066,
      "##lerimizi": 6067,
      "dokun": 6068,
      "##ulur": 6069,
      "Milletvekili": 6070,
      "verildi": 6071,
      "##udi": 6072,
      "gıda": 6073,
      "##ınar": 6074,
      "Pat": 6075,
      "##iya": 6076,
      "hepsi": 6077,
      "escort": 6078,
      "temin": 6079,
      "herkesin": 6080,
      "çerçevesinde": 6081,
      "finans": 6082,
      "##jans": 6083,
      "sağlayacak": 6084,
      "bence": 6085,
      "##10": 6086,
      "##utan": 6087,
      "içerik": 6088,
      "##acağı": 6089,
      "siyah": 6090,
      "şar": 6091,
      "##çiler": 6092,
      "##ecep": 6093,
      "soğuk": 6094,
      "ayı": 6095,
      "Şehir": 6096,
      "karıştır": 6097,
      "##AH": 6098,
      "yakala": 6099,
      "bende": 6100,
      "##sur": 6101,
      "güvenli": 6102,
      "Murat": 6103,
      "Fatih": 6104,
      "##brahim": 6105,
      "##do": 6106,
      "rakam": 6107,
      "##AZ": 6108,
      "şiş": 6109,
      "##mediği": 6110,
      "“T": 6111,
      "mon": 6112,
      "ir": 6113,
      "##lıkta": 6114,
      "Un": 6115,
      "##bin": 6116,
      "##etrol": 6117,
      "tır": 6118,
      "ettiğini": 6119,
      "Anay": 6120,
      "adını": 6121,
      "Jap": 6122,
      "etkisi": 6123,
      "Düş": 6124,
      "olduğundan": 6125,
      "istedi": 6126,
      "mus": 6127,
      "gitti": 6128,
      "kayded": 6129,
      "hizmetleri": 6130,
      "duyg": 6131,
      "Bit": 6132,
      "Değer": 6133,
      "derec": 6134,
      "çaba": 6135,
      "##his": 6136,
      "##ilebilir": 6137,
      "yönetimi": 6138,
      "neredeyse": 6139,
      "Sultan": 6140,
      "doğrult": 6141,
      "iyileş": 6142,
      "VE": 6143,
      "Kanun": 6144,
      "balık": 6145,
      "##’deki": 6146,
      "olanlar": 6147,
      "nitelik": 6148,
      "mahkem": 6149,
      "koruma": 6150,
      "ters": 6151,
      "vb": 6152,
      "Sanayi": 6153,
      "##ation": 6154,
      "imz": 6155,
      "300": 6156,
      "yatak": 6157,
      "müdahale": 6158,
      "34": 6159,
      "##’ne": 6160,
      "endiş": 6161,
      "Mahallesi": 6162,
      "filmi": 6163,
      "çoğun": 6164,
      "mesaf": 6165,
      "##ry": 6166,
      "Kab": 6167,
      "birden": 6168,
      "Cumhuriyeti": 6169,
      "lig": 6170,
      "ler": 6171,
      "sağlaya": 6172,
      "Car": 6173,
      "bahset": 6174,
      "Web": 6175,
      "boğ": 6176,
      "##tey": 6177,
      "katılan": 6178,
      "##larımıza": 6179,
      "öngör": 6180,
      "le": 6181,
      "##likleri": 6182,
      "ödem": 6183,
      "söyleyen": 6184,
      "verilm": 6185,
      "iptal": 6186,
      "özelliği": 6187,
      "krit": 6188,
      "reh": 6189,
      "giderek": 6190,
      "yapabilir": 6191,
      "maliyet": 6192,
      "##düğünü": 6193,
      "##MM": 6194,
      "tehdit": 6195,
      "Mahkem": 6196,
      "##ator": 6197,
      "##zi": 6198,
      "08": 6199,
      "##rum": 6200,
      "Yıldırım": 6201,
      "##ılıç": 6202,
      "kahv": 6203,
      "Din": 6204,
      "teb": 6205,
      "bina": 6206,
      "##tacak": 6207,
      "Recep": 6208,
      "##edek": 6209,
      "PKK": 6210,
      "##lığında": 6211,
      "fab": 6212,
      "ülkede": 6213,
      "gündem": 6214,
      "iktidar": 6215,
      "mesel": 6216,
      "Feder": 6217,
      "birik": 6218,
      "istek": 6219,
      "ameliyat": 6220,
      "##arında": 6221,
      "metre": 6222,
      "##tedir": 6223,
      "kağı": 6224,
      "Gru": 6225,
      "##mail": 6226,
      "Dil": 6227,
      "teknoloji": 6228,
      "Erkek": 6229,
      "aktif": 6230,
      "dedim": 6231,
      "##uklu": 6232,
      "kendilerine": 6233,
      "##’yi": 6234,
      "##ıklı": 6235,
      "detaylı": 6236,
      "lezz": 6237,
      "falan": 6238,
      "boya": 6239,
      "##yüz": 6240,
      "belediye": 6241,
      "##köy": 6242,
      "gelenek": 6243,
      "anlayış": 6244,
      "yapılmış": 6245,
      "birim": 6246,
      "pozisyon": 6247,
      "bakış": 6248,
      "##ock": 6249,
      "Ac": 6250,
      "gidip": 6251,
      "##ane": 6252,
      "şim": 6253,
      "farkında": 6254,
      "roman": 6255,
      "##ternatif": 6256,
      "##ümüş": 6257,
      "##estor": 6258,
      "sonuna": 6259,
      "almaya": 6260,
      "lik": 6261,
      "İnternet": 6262,
      "vermiş": 6263,
      "2007": 6264,
      "gelip": 6265,
      "içeren": 6266,
      "##lanarak": 6267,
      "cüm": 6268,
      "başlıyor": 6269,
      "Çar": 6270,
      "Pek": 6271,
      "##erim": 6272,
      "03": 6273,
      "##vik": 6274,
      "üstün": 6275,
      "insanları": 6276,
      "büny": 6277,
      "getirdi": 6278,
      "yarın": 6279,
      "Adana": 6280,
      "parçası": 6281,
      "tren": 6282,
      "alına": 6283,
      "2000": 6284,
      "içindeki": 6285,
      "##ck": 6286,
      "istedik": 6287,
      "bür": 6288,
      "anlama": 6289,
      "şub": 6290,
      "önceden": 6291,
      "Çağ": 6292,
      "ilçesinde": 6293,
      "##diniz": 6294,
      "aşama": 6295,
      "İbrahim": 6296,
      "kus": 6297,
      "vit": 6298,
      "ekib": 6299,
      "Google": 6300,
      "##istin": 6301,
      "işler": 6302,
      "had": 6303,
      "##leyici": 6304,
      "##ıf": 6305,
      "##uzu": 6306,
      "Koca": 6307,
      "Herk": 6308,
      "geçiş": 6309,
      "Güneş": 6310,
      "##jan": 6311,
      "seyahat": 6312,
      "So": 6313,
      "##makla": 6314,
      "##OS": 6315,
      "yatır": 6316,
      "ant": 6317,
      "ince": 6318,
      "##öğretim": 6319,
      "##OL": 6320,
      "yaparken": 6321,
      "sigorta": 6322,
      "alım": 6323,
      "Sey": 6324,
      "dünyaya": 6325,
      "becer": 6326,
      "##ner": 6327,
      "##liyat": 6328,
      "şikayet": 6329,
      "hır": 6330,
      "başkanı": 6331,
      "İspan": 6332,
      "##tp": 6333,
      "doğrultusunda": 6334,
      "Tayyip": 6335,
      "sıf": 6336,
      "tartışma": 6337,
      "düştü": 6338,
      "taşıyan": 6339,
      "tarım": 6340,
      "heyecan": 6341,
      "sanatçı": 6342,
      "##üya": 6343,
      "açıkla": 6344,
      "eğitimi": 6345,
      "olduğunuz": 6346,
      "##oto": 6347,
      "ayrıntı": 6348,
      "belirli": 6349,
      "##land": 6350,
      "##amet": 6351,
      "zih": 6352,
      "##yken": 6353,
      "##doğu": 6354,
      "çağır": 6355,
      "rast": 6356,
      "##acağız": 6357,
      "Geçen": 6358,
      "Hasta": 6359,
      "kullanımı": 6360,
      "##ındır": 6361,
      "Men": 6362,
      "olanak": 6363,
      "İdar": 6364,
      "##ýr": 6365,
      "vücut": 6366,
      "##uva": 6367,
      "ürünler": 6368,
      "seks": 6369,
      "##ıldız": 6370,
      "şehit": 6371,
      "görünüyor": 6372,
      "akıllı": 6373,
      "saf": 6374,
      "gücü": 6375,
      "birinin": 6376,
      "Partisi": 6377,
      "demiş": 6378,
      "eklen": 6379,
      "galib": 6380,
      "bölge": 6381,
      "##eğe": 6382,
      "AL": 6383,
      "komp": 6384,
      "##ie": 6385,
      "Hatta": 6386,
      "cm": 6387,
      "süren": 6388,
      "##all": 6389,
      "Met": 6390,
      "Cem": 6391,
      "##int": 6392,
      "kod": 6393,
      "gr": 6394,
      "Alt": 6395,
      "##eğini": 6396,
      "##cının": 6397,
      "işlemi": 6398,
      "##ahmet": 6399,
      "##dün": 6400,
      "Karşı": 6401,
      "bölümü": 6402,
      "##tion": 6403,
      "deney": 6404,
      "Dışişleri": 6405,
      "##ht": 6406,
      "dizi": 6407,
      "klas": 6408,
      "##dılar": 6409,
      "platform": 6410,
      "arz": 6411,
      "##uluyor": 6412,
      "Hüseyin": 6413,
      "##kırı": 6414,
      "dis": 6415,
      "bölgede": 6416,
      "zamanlarda": 6417,
      "online": 6418,
      "şeker": 6419,
      "inşaat": 6420,
      "oldukları": 6421,
      "Sig": 6422,
      "##afir": 6423,
      "mezun": 6424,
      "##ell": 6425,
      "Konya": 6426,
      "##celi": 6427,
      "ağaç": 6428,
      "Sarı": 6429,
      "06": 6430,
      "##iklet": 6431,
      "##ılmasına": 6432,
      "##SK": 6433,
      "Fin": 6434,
      "##teşem": 6435,
      "duyar": 6436,
      "Zaman": 6437,
      "##mamış": 6438,
      "inanıyor": 6439,
      "kanıt": 6440,
      "kere": 6441,
      "##fı": 6442,
      "demokras": 6443,
      "##iyorsunuz": 6444,
      "bayram": 6445,
      "fat": 6446,
      "dikkate": 6447,
      "hediye": 6448,
      "55": 6449,
      "kurulan": 6450,
      "Abd": 6451,
      "##lav": 6452,
      "##sını": 6453,
      "kalır": 6454,
      "önemlidir": 6455,
      "##embe": 6456,
      "kli": 6457,
      "Kup": 6458,
      "##luluğu": 6459,
      "2003": 6460,
      "olası": 6461,
      "verme": 6462,
      "hazırlanan": 6463,
      "##urta": 6464,
      "##cebook": 6465,
      "Ge": 6466,
      "2009": 6467,
      "karşılık": 6468,
      "##usuna": 6469,
      "Öğretmen": 6470,
      "ade": 6471,
      "Altın": 6472,
      "ettim": 6473,
      "##uf": 6474,
      "##liğinin": 6475,
      "yasal": 6476,
      "II": 6477,
      "2008": 6478,
      "tarihli": 6479,
      "HD": 6480,
      "2002": 6481,
      "##stit": 6482,
      "Mus": 6483,
      "trafik": 6484,
      "Yah": 6485,
      "yaşlı": 6486,
      "sorumluluk": 6487,
      "##ho": 6488,
      "albüm": 6489,
      "mat": 6490,
      "Tıp": 6491,
      "Med": 6492,
      "dönüştür": 6493,
      "07": 6494,
      "##ess": 6495,
      "Mac": 6496,
      "çocukların": 6497,
      "Nasıl": 6498,
      "Birleş": 6499,
      "##ılıp": 6500,
      "##omet": 6501,
      "48": 6502,
      "hakim": 6503,
      "şeyin": 6504,
      "##allah": 6505,
      "alk": 6506,
      "##emesi": 6507,
      "Plan": 6508,
      "kesim": 6509,
      "okuy": 6510,
      "##manızı": 6511,
      "##TL": 6512,
      "binlerce": 6513,
      "Si": 6514,
      "çevre": 6515,
      "analiz": 6516,
      "hac": 6517,
      "Zira": 6518,
      "##ijital": 6519,
      "Sü": 6520,
      "site": 6521,
      "özellikleri": 6522,
      "Ed": 6523,
      "Futbol": 6524,
      "ins": 6525,
      "dey": 6526,
      "duruş": 6527,
      "bağış": 6528,
      "Bunlar": 6529,
      "Of": 6530,
      "##lor": 6531,
      "##düz": 6532,
      "ondan": 6533,
      "##leriniz": 6534,
      "sanki": 6535,
      "sağlan": 6536,
      "##müyor": 6537,
      "Kanunu": 6538,
      "Sit": 6539,
      "denetim": 6540,
      "38": 6541,
      "##imizden": 6542,
      "sipariş": 6543,
      "##kaya": 6544,
      "Emniyet": 6545,
      "##ice": 6546,
      "demektir": 6547,
      "hapis": 6548,
      "otomatik": 6549,
      "##maye": 6550,
      "öt": 6551,
      "04": 6552,
      "kıya": 6553,
      "Beyaz": 6554,
      "Oğ": 6555,
      "##qu": 6556,
      "hazırlık": 6557,
      "DE": 6558,
      "Dolay": 6559,
      "değilim": 6560,
      "ismi": 6561,
      "kale": 6562,
      "serg": 6563,
      "azalt": 6564,
      "Ömer": 6565,
      "##lemeye": 6566,
      "şaşır": 6567,
      "cok": 6568,
      "Gar": 6569,
      "tabii": 6570,
      "yönlendir": 6571,
      "tepki": 6572,
      "37": 6573,
      "gitmek": 6574,
      "yenil": 6575,
      "##eliği": 6576,
      "Ana": 6577,
      "gidiyor": 6578,
      "Bundan": 6579,
      "TB": 6580,
      "tanın": 6581,
      "istediği": 6582,
      "##ferans": 6583,
      "lar": 6584,
      "çıkacak": 6585,
      "bulundur": 6586,
      "##irv": 6587,
      "##gre": 6588,
      "##ahtar": 6589,
      "##acağını": 6590,
      "memur": 6591,
      "Kamu": 6592,
      "ilginç": 6593,
      "##ikat": 6594,
      "kızı": 6595,
      "Mon": 6596,
      "alabil": 6597,
      "##ick": 6598,
      "ilişkiler": 6599,
      "kiralama": 6600,
      "Erz": 6601,
      "sakin": 6602,
      "##diğine": 6603,
      "geldiği": 6604,
      "Hır": 6605,
      "müt": 6606,
      "süreci": 6607,
      "diler": 6608,
      "toplumsal": 6609,
      "umut": 6610,
      "hük": 6611,
      "##ıklık": 6612,
      "##amazan": 6613,
      "Süper": 6614,
      "##rom": 6615,
      "sim": 6616,
      "düzenli": 6617,
      "oğlu": 6618,
      "ekley": 6619,
      "##lıdır": 6620,
      "deng": 6621,
      "##duğumuz": 6622,
      "kök": 6623,
      "ayn": 6624,
      "##arlar": 6625,
      "okuma": 6626,
      "##ilmektedir": 6627,
      "eriş": 6628,
      "bekle": 6629,
      "Peygamber": 6630,
      "##gılan": 6631,
      "Sonuç": 6632,
      "dolayısıyla": 6633,
      "##übü": 6634,
      "demir": 6635,
      "sanırım": 6636,
      "yıllar": 6637,
      "görülen": 6638,
      "Sp": 6639,
      "##oj": 6640,
      "uzat": 6641,
      "hızla": 6642,
      "güvenilir": 6643,
      "alınması": 6644,
      "Savaş": 6645,
      "##etleri": 6646,
      "etik": 6647,
      "##mesiyle": 6648,
      "etkilen": 6649,
      "yargı": 6650,
      "suy": 6651,
      "##ağın": 6652,
      "Hastanesi": 6653,
      "Fer": 6654,
      "kalın": 6655,
      "kitabı": 6656,
      "sarı": 6657,
      "zamanı": 6658,
      "hissed": 6659,
      "kamp": 6660,
      "##enn": 6661,
      "bilmiyorum": 6662,
      "Bilim": 6663,
      "##ment": 6664,
      "gösteriyor": 6665,
      "fer": 6666,
      "birer": 6667,
      "Muham": 6668,
      "veri": 6669,
      "##IL": 6670,
      "idi": 6671,
      "sorunun": 6672,
      "BM": 6673,
      "bozuk": 6674,
      "ticari": 6675,
      "##elek": 6676,
      "adamı": 6677,
      "İliş": 6678,
      "http": 6679,
      "##undaki": 6680,
      "MHP": 6681,
      "##ÜN": 6682,
      "kişiye": 6683,
      "hassas": 6684,
      "kadınlar": 6685,
      "Kendi": 6686,
      "##ksiyon": 6687,
      "##sit": 6688,
      "sinir": 6689,
      "modelleri": 6690,
      "mahalle": 6691,
      "ediliyor": 6692,
      "alternatif": 6693,
      "##nik": 6694,
      "sebebi": 6695,
      "cilt": 6696,
      "iken": 6697,
      "büyü": 6698,
      "girdi": 6699,
      "bedel": 6700,
      "otobüs": 6701,
      "Kil": 6702,
      "gerçekleştirilen": 6703,
      "kulak": 6704,
      "öy": 6705,
      "##ilerden": 6706,
      "La": 6707,
      "ulusal": 6708,
      "alındı": 6709,
      "itibariyle": 6710,
      "uyum": 6711,
      "kendilerini": 6712,
      "aldım": 6713,
      "geril": 6714,
      "kayıp": 6715,
      "buradan": 6716,
      "##nin": 6717,
      "##emli": 6718,
      "akadem": 6719,
      "Adam": 6720,
      "istiyoruz": 6721,
      "##oo": 6722,
      "##okul": 6723,
      "##isiniz": 6724,
      "##kabı": 6725,
      "üniversite": 6726,
      "Başka": 6727,
      "##pt": 6728,
      "Bölg": 6729,
      "##ordin": 6730,
      "##ows": 6731,
      "kuzey": 6732,
      "Yen": 6733,
      "tedbir": 6734,
      "##’ün": 6735,
      "akl": 6736,
      "##ata": 6737,
      "Van": 6738,
      "kampanya": 6739,
      "depr": 6740,
      "75": 6741,
      "Hey": 6742,
      "almaktadır": 6743,
      "##arbak": 6744,
      "Uygulama": 6745,
      "##lılar": 6746,
      "##vekil": 6747,
      "hayatı": 6748,
      "buz": 6749,
      "sanayi": 6750,
      "##mekten": 6751,
      "##ino": 6752,
      "Ec": 6753,
      "edilmiştir": 6754,
      "Odası": 6755,
      "Yunanistan": 6756,
      "##tanın": 6757,
      "##cağına": 6758,
      "Ders": 6759,
      "çıkart": 6760,
      "44": 6761,
      "Ulusal": 6762,
      "65": 6763,
      "##dukları": 6764,
      "olmayacak": 6765,
      "##sına": 6766,
      "elektronik": 6767,
      "##sızlık": 6768,
      "elb": 6769,
      "ufak": 6770,
      "gelişim": 6771,
      "işlemleri": 6772,
      "##gr": 6773,
      "##ümr": 6774,
      "karan": 6775,
      "##ılmasını": 6776,
      "harit": 6777,
      "##ıb": 6778,
      "müşteriler": 6779,
      "çalışması": 6780,
      "mens": 6781,
      "sabit": 6782,
      "sahib": 6783,
      "Grup": 6784,
      "Cev": 6785,
      "kapan": 6786,
      "takımı": 6787,
      "Otel": 6788,
      "ederken": 6789,
      "Be": 6790,
      "tanıt": 6791,
      "Mühendis": 6792,
      "edi": 6793,
      "kullanılır": 6794,
      "##uyucu": 6795,
      "niyet": 6796,
      "##ko": 6797,
      "Hukuk": 6798,
      "özen": 6799,
      "##anız": 6800,
      "bölgesinde": 6801,
      "kullanmak": 6802,
      "##luluğ": 6803,
      "##etiyle": 6804,
      "##ırlar": 6805,
      "Yapılan": 6806,
      "Ligi": 6807,
      "##kil": 6808,
      "kavuş": 6809,
      "##usal": 6810,
      "Çalışma": 6811,
      "evlen": 6812,
      "dip": 6813,
      "oranında": 6814,
      "bahç": 6815,
      "##les": 6816,
      "piyasa": 6817,
      "şef": 6818,
      "##liyoruz": 6819,
      "unsur": 6820,
      "Kut": 6821,
      "Mey": 6822,
      "Ceza": 6823,
      "İşlet": 6824,
      "Mem": 6825,
      "##ülmesi": 6826,
      "Cuma": 6827,
      "zorunlu": 6828,
      "çalıştır": 6829,
      "##ESİ": 6830,
      "gözlem": 6831,
      "dakikada": 6832,
      "takdirde": 6833,
      "birşey": 6834,
      "##arbakır": 6835,
      "üyeleri": 6836,
      "yerli": 6837,
      "depo": 6838,
      "sağlam": 6839,
      "##amik": 6840,
      "##gü": 6841,
      "final": 6842,
      "##altına": 6843,
      "sam": 6844,
      "Ef": 6845,
      "çeki": 6846,
      "azından": 6847,
      "##kel": 6848,
      "desteği": 6849,
      "kred": 6850,
      "açılış": 6851,
      "değildi": 6852,
      "Kanunun": 6853,
      "değeri": 6854,
      "Kons": 6855,
      "##rop": 6856,
      "ilişki": 6857,
      "bulmak": 6858,
      "sevin": 6859,
      "görsel": 6860,
      "grubu": 6861,
      "görme": 6862,
      "##mut": 6863,
      "to": 6864,
      "Etik": 6865,
      "Yıldız": 6866,
      "köpek": 6867,
      "yaşadığı": 6868,
      "fık": 6869,
      "##illi": 6870,
      "alabilirsiniz": 6871,
      "bulunur": 6872,
      "yoktu": 6873,
      "konser": 6874,
      "yapımı": 6875,
      "##arya": 6876,
      "böylece": 6877,
      "seçen": 6878,
      "Ha": 6879,
      "ışı": 6880,
      "söyler": 6881,
      "##ple": 6882,
      "##alesef": 6883,
      "Is": 6884,
      "açılan": 6885,
      "##anacak": 6886,
      "İçin": 6887,
      "görür": 6888,
      "##üldü": 6889,
      "ihale": 6890,
      "ert": 6891,
      "##manlık": 6892,
      "tıp": 6893,
      "ilçe": 6894,
      "maçı": 6895,
      "##meyin": 6896,
      "##ğını": 6897,
      "39": 6898,
      "##UM": 6899,
      "eşi": 6900,
      "Fiyat": 6901,
      "“H": 6902,
      "Pr": 6903,
      "haft": 6904,
      "Demok": 6905,
      "fiyatı": 6906,
      "##anti": 6907,
      "Grubu": 6908,
      "yaptıkları": 6909,
      "Sınav": 6910,
      "Yayınları": 6911,
      "##afer": 6912,
      "üretic": 6913,
      "İsv": 6914,
      "izlen": 6915,
      "ürünü": 6916,
      "istif": 6917,
      "olduklarını": 6918,
      "yolunda": 6919,
      "olmayı": 6920,
      "Teş": 6921,
      "birleş": 6922,
      "onunla": 6923,
      "süs": 6924,
      "nüfus": 6925,
      "Tarım": 6926,
      "koc": 6927,
      "bugüne": 6928,
      "öncelikle": 6929,
      "üstüne": 6930,
      "Yeşil": 6931,
      "Str": 6932,
      "##ker": 6933,
      "Arkadaş": 6934,
      "yürür": 6935,
      "Avust": 6936,
      "hab": 6937,
      "Kiş": 6938,
      "işbirliği": 6939,
      "teşvik": 6940,
      "##iki": 6941,
      "görüşmeler": 6942,
      "posta": 6943,
      "##müştür": 6944,
      "Kaymak": 6945,
      "##biliriz": 6946,
      "Koç": 6947,
      "göl": 6948,
      "##ever": 6949,
      "##acağım": 6950,
      "tarihleri": 6951,
      "kadının": 6952,
      "görevi": 6953,
      "Şey": 6954,
      "şunları": 6955,
      "sağlıyor": 6956,
      "42": 6957,
      "yolcu": 6958,
      "##rama": 6959,
      "##ınızın": 6960,
      "İtalya": 6961,
      "##our": 6962,
      "toz": 6963,
      "benzeri": 6964,
      "Merhaba": 6965,
      "açıdan": 6966,
      "##eceğine": 6967,
      "##ori": 6968,
      "##tıkları": 6969,
      "mıs": 6970,
      "konuşan": 6971,
      "##tansiy": 6972,
      "##tığımız": 6973,
      "Boz": 6974,
      "çıkarı": 6975,
      "##ülebilir": 6976,
      "Ödül": 6977,
      "büyüm": 6978,
      "##diye": 6979,
      "pil": 6980,
      "##tum": 6981,
      "Mek": 6982,
      "##eceğimiz": 6983,
      "edebilirsiniz": 6984,
      "söylemek": 6985,
      "organizasyon": 6986,
      "##demir": 6987,
      "Turizm": 6988,
      "anlatan": 6989,
      "bilimsel": 6990,
      "##ena": 6991,
      "##itir": 6992,
      "Tun": 6993,
      "yeme": 6994,
      "##isa": 6995,
      "Kart": 6996,
      "##ug": 6997,
      "##duğum": 6998,
      "##RK": 6999,
      "birleştir": 7000,
      "Çelik": 7001,
      "turizm": 7002,
      "Değiş": 7003,
      "köt": 7004,
      "##yu": 7005,
      "Fır": 7006,
      "belirtildi": 7007,
      "numar": 7008,
      "Mısır": 7009,
      "gazetec": 7010,
      "##ektörü": 7011,
      "bilgilendir": 7012,
      "Enerj": 7013,
      "##ğin": 7014,
      "##melidir": 7015,
      "incelem": 7016,
      "çö": 7017,
      "Bilgi": 7018,
      "Pa": 7019,
      "renkli": 7020,
      "gelişmeler": 7021,
      "##errah": 7022,
      "##unma": 7023,
      "uygulaması": 7024,
      "küt": 7025,
      "York": 7026,
      "evet": 7027,
      "Toplantı": 7028,
      "Diyarbakır": 7029,
      "##12": 7030,
      "no": 7031,
      "bilinç": 7032,
      "##parator": 7033,
      "##antep": 7034,
      "popüler": 7035,
      "biçim": 7036,
      "##gah": 7037,
      "##uta": 7038,
      "##bon": 7039,
      "Bahç": 7040,
      "##yasal": 7041,
      "Saat": 7042,
      "##ohn": 7043,
      "değişim": 7044,
      "işçi": 7045,
      "##lý": 7046,
      "kültürel": 7047,
      "##işehir": 7048,
      "Belediy": 7049,
      "vs": 7050,
      "iade": 7051,
      "gök": 7052,
      "##mede": 7053,
      "##ris": 7054,
      "muhteşem": 7055,
      "sonuçları": 7056,
      "##ysa": 7057,
      "Dolayısıyla": 7058,
      "##seri": 7059,
      "TO": 7060,
      "kıyafet": 7061,
      "yönünde": 7062,
      "misafir": 7063,
      "noktada": 7064,
      "##eral": 7065,
      "iyice": 7066,
      "bakımından": 7067,
      "sıv": 7068,
      "sevg": 7069,
      "2001": 7070,
      "##okulu": 7071,
      "ayrıl": 7072,
      "imkanı": 7073,
      "##dev": 7074,
      "yanına": 7075,
      "dalga": 7076,
      "yumuş": 7077,
      "restor": 7078,
      "seyir": 7079,
      "edilecek": 7080,
      "kısım": 7081,
      "Festiv": 7082,
      "##hone": 7083,
      "faktör": 7084,
      "dans": 7085,
      "##mos": 7086,
      "##mesinde": 7087,
      "şık": 7088,
      "tit": 7089,
      "Esk": 7090,
      "##indows": 7091,
      "etki": 7092,
      "gündeme": 7093,
      "kaynağı": 7094,
      "##cılığı": 7095,
      "##lerimizin": 7096,
      "##ity": 7097,
      "##ese": 7098,
      "53": 7099,
      "Hazır": 7100,
      "##ima": 7101,
      "kaza": 7102,
      "##ezerv": 7103,
      "Balık": 7104,
      "sevgil": 7105,
      "ağrı": 7106,
      "Zaten": 7107,
      "projesi": 7108,
      "Rab": 7109,
      "makam": 7110,
      "Yurt": 7111,
      "Sınıf": 7112,
      "##ayacak": 7113,
      "##lüğe": 7114,
      "Tabii": 7115,
      "olduğum": 7116,
      "##kal": 7117,
      "geçer": 7118,
      "##liliği": 7119,
      "##leyman": 7120,
      "Kılıç": 7121,
      "##cağınız": 7122,
      "karşıya": 7123,
      "yetkili": 7124,
      "göğ": 7125,
      "##aca": 7126,
      "Po": 7127,
      "denet": 7128,
      "geçtiğimiz": 7129,
      "tor": 7130,
      "##log": 7131,
      "yılından": 7132,
      "lezzet": 7133,
      "gördüm": 7134,
      "##eyse": 7135,
      "Günü": 7136,
      "##rag": 7137,
      "nefes": 7138,
      "insanlara": 7139,
      "##amaya": 7140,
      "yoluyla": 7141,
      "Far": 7142,
      "gerekç": 7143,
      "tablo": 7144,
      "##DA": 7145,
      "##ilyon": 7146,
      "Önce": 7147,
      "##rav": 7148,
      "##stik": 7149,
      "Asya": 7150,
      "Banka": 7151,
      "Filistin": 7152,
      "47": 7153,
      "avukat": 7154,
      "cumhur": 7155,
      "##ema": 7156,
      "kalmış": 7157,
      "incelen": 7158,
      "uçuş": 7159,
      "başlayacak": 7160,
      "yaptım": 7161,
      "##olog": 7162,
      "##sör": 7163,
      "“E": 7164,
      "taleb": 7165,
      "##umartesi": 7166,
      "Paşa": 7167,
      "pişir": 7168,
      "##kur": 7169,
      "fonksiyon": 7170,
      "##dığından": 7171,
      "düzelt": 7172,
      "Öyle": 7173,
      "##aseb": 7174,
      "kahraman": 7175,
      "Co": 7176,
      "durumlarda": 7177,
      "Malat": 7178,
      "##lendirme": 7179,
      "hücr": 7180,
      "400": 7181,
      "Onlar": 7182,
      "beyan": 7183,
      "##bank": 7184,
      "##ruf": 7185,
      "##AC": 7186,
      "##rol": 7187,
      "TBMM": 7188,
      "Yal": 7189,
      "Kral": 7190,
      "##uyoruz": 7191,
      "bı": 7192,
      "temsilc": 7193,
      "sistemleri": 7194,
      "gür": 7195,
      "güney": 7196,
      "yerden": 7197,
      "yaşıyor": 7198,
      "Siv": 7199,
      "petrol": 7200,
      "##liy": 7201,
      "Nak": 7202,
      "kamera": 7203,
      "önde": 7204,
      "##madığı": 7205,
      "aşa": 7206,
      "yaşat": 7207,
      "arkadaşlar": 7208,
      "##maması": 7209,
      "donan": 7210,
      "potansiy": 7211,
      "Don": 7212,
      "olmadı": 7213,
      "fel": 7214,
      "kendimi": 7215,
      "Cumhurbaşkan": 7216,
      "babası": 7217,
      "##IK": 7218,
      "görünt": 7219,
      "Öl": 7220,
      "usul": 7221,
      "yumurta": 7222,
      "acaba": 7223,
      "bilgiye": 7224,
      "kup": 7225,
      "gösterir": 7226,
      "işleri": 7227,
      "elinde": 7228,
      "##wit": 7229,
      "eleman": 7230,
      "dönemi": 7231,
      "verilir": 7232,
      "Ordu": 7233,
      "Mi": 7234,
      "birbirinden": 7235,
      "##İŞ": 7236,
      "refer": 7237,
      "arkadaşı": 7238,
      "öğrencilerin": 7239,
      "##melik": 7240,
      "düşen": 7241,
      "benimle": 7242,
      "##EC": 7243,
      "##masın": 7244,
      "##abilmek": 7245,
      "##kent": 7246,
      "##ükle": 7247,
      "Ramazan": 7248,
      "okun": 7249,
      "taraftar": 7250,
      "##tılar": 7251,
      "##asındaki": 7252,
      "194": 7253,
      "acil": 7254,
      "John": 7255,
      "dini": 7256,
      "Pan": 7257,
      "dekor": 7258,
      "kulüp": 7259,
      "rej": 7260,
      "önümüzdeki": 7261,
      "##türk": 7262,
      "Kurt": 7263,
      "beklent": 7264,
      "rakip": 7265,
      "üstünde": 7266,
      "kullanan": 7267,
      "Tamam": 7268,
      "##nan": 7269,
      "olsay": 7270,
      "Tarihi": 7271,
      "geldiğini": 7272,
      "##dışı": 7273,
      "olacağı": 7274,
      "gerektiği": 7275,
      "kalem": 7276,
      "##EF": 7277,
      "çağr": 7278,
      "istiyorsanız": 7279,
      "benden": 7280,
      "##kon": 7281,
      "##akkale": 7282,
      "geçici": 7283,
      "ortamda": 7284,
      "Arab": 7285,
      "Şen": 7286,
      "hoc": 7287,
      "kanser": 7288,
      "##yol": 7289,
      "adeta": 7290,
      "aktiv": 7291,
      "##amıyor": 7292,
      "kalb": 7293,
      "kullandı": 7294,
      "amaçlı": 7295,
      "43": 7296,
      "gördük": 7297,
      "vermeye": 7298,
      "hayatta": 7299,
      "yarım": 7300,
      "kimlik": 7301,
      "Süleyman": 7302,
      "ır": 7303,
      "kartı": 7304,
      "edebiyat": 7305,
      "sevk": 7306,
      "##paşa": 7307,
      "yayınlanan": 7308,
      "konuk": 7309,
      "Doktor": 7310,
      "Rad": 7311,
      "halkın": 7312,
      "şeyleri": 7313,
      "Görün": 7314,
      "Mark": 7315,
      "aykırı": 7316,
      "##var": 7317,
      "##ray": 7318,
      "Gaziantep": 7319,
      "TR": 7320,
      "##illa": 7321,
      "##ilmesini": 7322,
      "yaklaşım": 7323,
      "46": 7324,
      "sorunları": 7325,
      "##rens": 7326,
      "altyap": 7327,
      "AR": 7328,
      "Anayasa": 7329,
      "“D": 7330,
      "ölçüde": 7331,
      "Gerek": 7332,
      "malzeme": 7333,
      "ilave": 7334,
      "hakları": 7335,
      "##iyo": 7336,
      "kum": 7337,
      "birbirine": 7338,
      "##ıldığını": 7339,
      "bildirdi": 7340,
      "uyarı": 7341,
      "Polis": 7342,
      "“İ": 7343,
      "insanı": 7344,
      "##ilmez": 7345,
      "##eceksiniz": 7346,
      "çekti": 7347,
      "##enkul": 7348,
      "##masyon": 7349,
      "adr": 7350,
      "Çık": 7351,
      "##ahh": 7352,
      "##EY": 7353,
      "dağıt": 7354,
      "bağır": 7355,
      "##ilerle": 7356,
      "##ümrük": 7357,
      "Dik": 7358,
      "##layabil": 7359,
      "taban": 7360,
      "##iyorsun": 7361,
      "kaçın": 7362,
      "gereği": 7363,
      "çocuğun": 7364,
      "yeten": 7365,
      "kullanma": 7366,
      "Ona": 7367,
      "gözaltına": 7368,
      "maddesi": 7369,
      "kimsenin": 7370,
      "Karadeniz": 7371,
      "olmalıdır": 7372,
      "Doğan": 7373,
      "oldum": 7374,
      "##roid": 7375,
      "yenilik": 7376,
      "“M": 7377,
      "##amin": 7378,
      "ib": 7379,
      "cezası": 7380,
      "anlaşma": 7381,
      "zek": 7382,
      "41": 7383,
      "kadınların": 7384,
      "kalacak": 7385,
      "devletin": 7386,
      "tad": 7387,
      "değin": 7388,
      "darbe": 7389,
      "##uşturucu": 7390,
      "çocuğu": 7391,
      "Pak": 7392,
      "moda": 7393,
      "indirim": 7394,
      "193": 7395,
      "savunma": 7396,
      "Muhammed": 7397,
      "anti": 7398,
      "##andar": 7399,
      "##inda": 7400,
      "##elle": 7401,
      "##23": 7402,
      "fazlası": 7403,
      "##lerdi": 7404,
      "##ıldığında": 7405,
      "duruma": 7406,
      "mor": 7407,
      "yapısı": 7408,
      "aşağıda": 7409,
      "mac": 7410,
      "##laşık": 7411,
      "esk": 7412,
      "150": 7413,
      "##’u": 7414,
      "anlamı": 7415,
      "takv": 7416,
      "İd": 7417,
      "195": 7418,
      "görünüm": 7419,
      "tutan": 7420,
      "Fark": 7421,
      "Çek": 7422,
      "yüzey": 7423,
      "##kır": 7424,
      "modeli": 7425,
      "##TC": 7426,
      "sıkı": 7427,
      "maddi": 7428,
      "muhtem": 7429,
      "##sar": 7430,
      "işlev": 7431,
      "Kupası": 7432,
      "boyu": 7433,
      "Kurumu": 7434,
      "vad": 7435,
      "##atematik": 7436,
      "##dınız": 7437,
      "##liliğ": 7438,
      "yerlerde": 7439,
      "##EB": 7440,
      "hit": 7441,
      "mali": 7442,
      "enflasyon": 7443,
      "ndan": 7444,
      "Paz": 7445,
      "##larımı": 7446,
      "orman": 7447,
      "Mobil": 7448,
      "kolayca": 7449,
      "Sanırım": 7450,
      "Boğ": 7451,
      "şirketi": 7452,
      "Sitesi": 7453,
      "“Y": 7454,
      "komş": 7455,
      "olamaz": 7456,
      "aralarında": 7457,
      "gösterdi": 7458,
      "olmaktadır": 7459,
      "Yatırım": 7460,
      "kapasit": 7461,
      "Gençlik": 7462,
      "Olay": 7463,
      "coğraf": 7464,
      "şeye": 7465,
      "##ding": 7466,
      "Akdeniz": 7467,
      "##insel": 7468,
      "##lakalı": 7469,
      "kimi": 7470,
      "pr": 7471,
      "##lerindeki": 7472,
      "ulaşabilirsiniz": 7473,
      "herkese": 7474,
      "Mad": 7475,
      "zamanlar": 7476,
      "Enstit": 7477,
      "getirmek": 7478,
      "Tip": 7479,
      "##abor": 7480,
      "Con": 7481,
      "##memesi": 7482,
      "katı": 7483,
      "göm": 7484,
      "lir": 7485,
      "yiyecek": 7486,
      "yitir": 7487,
      "mür": 7488,
      "stat": 7489,
      "usta": 7490,
      "şehr": 7491,
      "est": 7492,
      "##ilebil": 7493,
      "##fendim": 7494,
      "iP": 7495,
      "Gaz": 7496,
      "besin": 7497,
      "Karar": 7498,
      "mühendis": 7499,
      "54": 7500,
      "komisyon": 7501,
      "servisi": 7502,
      "Jo": 7503,
      "##ograf": 7504,
      "##leket": 7505,
      "##pe": 7506,
      "##bey": 7507,
      "ülkeler": 7508,
      "hatırlat": 7509,
      "Sı": 7510,
      "##onun": 7511,
      "Konu": 7512,
      "kuma": 7513,
      "verilmesi": 7514,
      "Eğit": 7515,
      "##emizin": 7516,
      "blog": 7517,
      "küresel": 7518,
      "##ica": 7519,
      "bilmiyor": 7520,
      "Gön": 7521,
      "##üye": 7522,
      "yapabilirsiniz": 7523,
      "##okol": 7524,
      "Cih": 7525,
      "Sch": 7526,
      "müzak": 7527,
      "Savaşı": 7528,
      "yaşay": 7529,
      "dua": 7530,
      "Baz": 7531,
      "elbette": 7532,
      "maaş": 7533,
      "yüküm": 7534,
      "Bölümü": 7535,
      "etmiştir": 7536,
      "Kamp": 7537,
      "ihtimal": 7538,
      "öncesinde": 7539,
      "##ılacağı": 7540,
      "cinayet": 7541,
      "##dy": 7542,
      "belediy": 7543,
      "çey": 7544,
      "Kaf": 7545,
      "##ETÖ": 7546,
      "ofis": 7547,
      "##ich": 7548,
      "##irim": 7549,
      "yaşamak": 7550,
      "Turk": 7551,
      "genelinde": 7552,
      "Rob": 7553,
      "Afrika": 7554,
      "nden": 7555,
      "##usuz": 7556,
      "ekibi": 7557,
      "Abdullah": 7558,
      "##gat": 7559,
      "başlangıç": 7560,
      "ekipleri": 7561,
      "kamer": 7562,
      "kazanan": 7563,
      "bez": 7564,
      "Adı": 7565,
      "Siyas": 7566,
      "yakından": 7567,
      "##isyen": 7568,
      "mevzu": 7569,
      "ani": 7570,
      "sürece": 7571,
      "Öğretim": 7572,
      "yaptığını": 7573,
      "##ülük": 7574,
      "temizlik": 7575,
      "belirlenen": 7576,
      "sizler": 7577,
      "bilet": 7578,
      "bölümünde": 7579,
      "bulama": 7580,
      "rüz": 7581,
      "konak": 7582,
      "yedi": 7583,
      "muhab": 7584,
      "Biraz": 7585,
      "##cıların": 7586,
      "kaş": 7587,
      "##oft": 7588,
      "güçlendir": 7589,
      "çor": 7590,
      "Pen": 7591,
      "Dünyanın": 7592,
      "KO": 7593,
      "##veren": 7594,
      "##ash": 7595,
      "Üzer": 7596,
      "Yazı": 7597,
      "##acaktır": 7598,
      "aley": 7599,
      "çıkmış": 7600,
      "sel": 7601,
      "korku": 7602,
      "hatırla": 7603,
      "sevgi": 7604,
      "genelde": 7605,
      "üretimi": 7606,
      "husus": 7607,
      "yürüyüş": 7608,
      "Boy": 7609,
      "Tom": 7610,
      "##otel": 7611,
      "Ege": 7612,
      "alınacak": 7613,
      "##ilerde": 7614,
      "##PS": 7615,
      "##tılan": 7616,
      "sebebiyle": 7617,
      "meydan": 7618,
      "Danış": 7619,
      "##larken": 7620,
      "bilen": 7621,
      "adalet": 7622,
      "günümüz": 7623,
      "istedim": 7624,
      "Şahin": 7625,
      "yedek": 7626,
      "##ilmesine": 7627,
      "Dep": 7628,
      "##day": 7629,
      "##’yı": 7630,
      "ep": 7631,
      "Windows": 7632,
      "ağz": 7633,
      "sanıyor": 7634,
      "op": 7635,
      "kaybol": 7636,
      "49": 7637,
      "tiyatro": 7638,
      "##ood": 7639,
      "may": 7640,
      "edildiği": 7641,
      "##duğunuz": 7642,
      "sorgu": 7643,
      "Ede": 7644,
      "maçında": 7645,
      "Euro": 7646,
      "kafa": 7647,
      "##laştırma": 7648,
      "adlandır": 7649,
      "Facebook": 7650,
      "anahtar": 7651,
      "##ary": 7652,
      "Komisyonu": 7653,
      "##mıyorum": 7654,
      "bütç": 7655,
      "yolda": 7656,
      "##likler": 7657,
      "Mat": 7658,
      "##sızın": 7659,
      "gurur": 7660,
      "biridir": 7661,
      "##teyiz": 7662,
      "istediğim": 7663,
      "gib": 7664,
      "vir": 7665,
      "Rapor": 7666,
      "Telefon": 7667,
      "##SO": 7668,
      "##şi": 7669,
      "olağan": 7670,
      "oyunları": 7671,
      "##ral": 7672,
      "##mis": 7673,
      "alet": 7674,
      "alınarak": 7675,
      "Ses": 7676,
      "fiziksel": 7677,
      "##leki": 7678,
      "##leyerek": 7679,
      "ob": 7680,
      "isterseniz": 7681,
      "Bilgisayar": 7682,
      "Port": 7683,
      "başlaya": 7684,
      "##lerken": 7685,
      "vermektedir": 7686,
      "ölü": 7687,
      "Selç": 7688,
      "ayakkabı": 7689,
      "Cadde": 7690,
      "AT": 7691,
      "Size": 7692,
      "Fet": 7693,
      "konularda": 7694,
      "Doç": 7695,
      "Yab": 7696,
      "##astik": 7697,
      "##odrum": 7698,
      "Mahkemesi": 7699,
      "Paris": 7700,
      "##lenir": 7701,
      "mutfak": 7702,
      "kazandı": 7703,
      "Sizin": 7704,
      "Lond": 7705,
      "haklı": 7706,
      "günün": 7707,
      "çocukları": 7708,
      "hanım": 7709,
      "sürü": 7710,
      "Mersin": 7711,
      "Reh": 7712,
      "siteleri": 7713,
      "civarında": 7714,
      "Akadem": 7715,
      "Mu": 7716,
      "Şube": 7717,
      "ideal": 7718,
      "eh": 7719,
      "İsmail": 7720,
      "FETÖ": 7721,
      "Pas": 7722,
      "halkı": 7723,
      "Sok": 7724,
      "aracılığıyla": 7725,
      "##ebiliriz": 7726,
      "##ilerinden": 7727,
      "kurumsal": 7728,
      "##mm": 7729,
      "##leyecek": 7730,
      "lideri": 7731,
      "Organ": 7732,
      "Sekret": 7733,
      "##siyet": 7734,
      "bis": 7735,
      "süredir": 7736,
      "##lıktan": 7737,
      "Çevre": 7738,
      "##elendir": 7739,
      "##osk": 7740,
      "halen": 7741,
      "##zan": 7742,
      "mutluluk": 7743,
      "##denin": 7744,
      "buldu": 7745,
      "##EV": 7746,
      "dür": 7747,
      "evlilik": 7748,
      "vererek": 7749,
      "Roman": 7750,
      "Öte": 7751,
      "Düzen": 7752,
      "far": 7753,
      "##araj": 7754,
      "##AV": 7755,
      "Dar": 7756,
      "İlet": 7757,
      "##ull": 7758,
      "yangın": 7759,
      "özür": 7760,
      "karşın": 7761,
      "yazık": 7762,
      "uğra": 7763,
      "yenilen": 7764,
      "bazıları": 7765,
      "52": 7766,
      "yarışma": 7767,
      "saniye": 7768,
      "çağrı": 7769,
      "##ilip": 7770,
      "Tim": 7771,
      "##mesinden": 7772,
      "yör": 7773,
      "##lanabilir": 7774,
      "misiniz": 7775,
      "##yaj": 7776,
      "##LU": 7777,
      "sinema": 7778,
      "##car": 7779,
      "Görev": 7780,
      "kilit": 7781,
      "Yav": 7782,
      "##rada": 7783,
      "gecik": 7784,
      "bask": 7785,
      "Fotoğraf": 7786,
      "##ansiyon": 7787,
      "Lisesi": 7788,
      "bünyesinde": 7789,
      "koltuk": 7790,
      "telefonu": 7791,
      "Bence": 7792,
      "Kaç": 7793,
      "Yağ": 7794,
      "İnşa": 7795,
      "##şallah": 7796,
      "çan": 7797,
      "kalıyor": 7798,
      "##ürken": 7799,
      "Ex": 7800,
      "##ılmaktadır": 7801,
      "##ketbol": 7802,
      "Pet": 7803,
      "Enerji": 7804,
      "mimar": 7805,
      "##zat": 7806,
      "sektöründe": 7807,
      "bahsed": 7808,
      "antren": 7809,
      "halka": 7810,
      "lok": 7811,
      "##melerin": 7812,
      "##düstr": 7813,
      "##gür": 7814,
      "devrim": 7815,
      "Çanakkale": 7816,
      "ker": 7817,
      "##OĞ": 7818,
      "Ner": 7819,
      "tanıtım": 7820,
      "Elektrik": 7821,
      "günler": 7822,
      "##atistik": 7823,
      "kaçak": 7824,
      "##abiliyor": 7825,
      "anal": 7826,
      "adamın": 7827,
      "sunan": 7828,
      "kalite": 7829,
      "##emeyen": 7830,
      "##eyecek": 7831,
      "Di": 7832,
      "oraya": 7833,
      "verg": 7834,
      "##iller": 7835,
      "Vakfı": 7836,
      "kurs": 7837,
      "yapıldığı": 7838,
      "inc": 7839,
      "##iyel": 7840,
      "istihdam": 7841,
      "temas": 7842,
      "##TÜ": 7843,
      "##tez": 7844,
      "kağıt": 7845,
      "##bek": 7846,
      "yükselt": 7847,
      "Art": 7848,
      "ni": 7849,
      "çalışmak": 7850,
      "Meslek": 7851,
      "dayalı": 7852,
      "manz": 7853,
      "##aborat": 7854,
      "parmak": 7855,
      "##oğu": 7856,
      "olayı": 7857,
      "##menizi": 7858,
      "edilebilir": 7859,
      "Sayfa": 7860,
      "Toplum": 7861,
      "maçta": 7862,
      "Oysa": 7863,
      "süper": 7864,
      "##ona": 7865,
      "nefret": 7866,
      "işgal": 7867,
      "##imle": 7868,
      "sayede": 7869,
      "terörist": 7870,
      "derg": 7871,
      "hazırla": 7872,
      "büyüme": 7873,
      "kurban": 7874,
      "düzeyde": 7875,
      "Doğru": 7876,
      "##gini": 7877,
      "dilek": 7878,
      "##şiv": 7879,
      "##usunun": 7880,
      "bet": 7881,
      "Kav": 7882,
      "##los": 7883,
      "sigara": 7884,
      "rekabet": 7885,
      "numaralı": 7886,
      "##ây": 7887,
      "beyin": 7888,
      "##ısal": 7889,
      "Kulübü": 7890,
      "dijital": 7891,
      "mensup": 7892,
      "##lerimize": 7893,
      "Bölge": 7894,
      "##dunuz": 7895,
      "##melerini": 7896,
      "klasik": 7897,
      "sözleri": 7898,
      "tuş": 7899,
      "Temiz": 7900,
      "Bo": 7901,
      "deprem": 7902,
      "pah": 7903,
      "döviz": 7904,
      "##ğe": 7905,
      "Tor": 7906,
      "##ebilmek": 7907,
      "##suzluk": 7908,
      "##lemesi": 7909,
      "Hakan": 7910,
      "hâlâ": 7911,
      "nas": 7912,
      "##tıcı": 7913,
      "başlama": 7914,
      "amac": 7915,
      "yerler": 7916,
      "korumak": 7917,
      "##likte": 7918,
      "##isiz": 7919,
      "##tığım": 7920,
      "##des": 7921,
      "yağmur": 7922,
      "58": 7923,
      "dük": 7924,
      "tanesi": 7925,
      "##ülk": 7926,
      "şunu": 7927,
      "##dığın": 7928,
      "##satı": 7929,
      "sos": 7930,
      "yakış": 7931,
      "maden": 7932,
      "##ilya": 7933,
      "Kaynak": 7934,
      "Ta": 7935,
      "bildirildi": 7936,
      "Net": 7937,
      "esnasında": 7938,
      "alabilir": 7939,
      "##şamba": 7940,
      "hayran": 7941,
      "gidecek": 7942,
      "demokratik": 7943,
      "kana": 7944,
      "yapıp": 7945,
      "geleneksel": 7946,
      "Takım": 7947,
      "verici": 7948,
      "ülkemizde": 7949,
      "Aile": 7950,
      "tasarruf": 7951,
      "Kuvvet": 7952,
      "zamanında": 7953,
      "seviye": 7954,
      "Malatya": 7955,
      "düşünce": 7956,
      "##elli": 7957,
      "Müzik": 7958,
      "rezerv": 7959,
      "Şim": 7960,
      "yetenek": 7961,
      "paylaşım": 7962,
      "çök": 7963,
      "anı": 7964,
      "evden": 7965,
      "Hollanda": 7966,
      "halı": 7967,
      "##tiğinde": 7968,
      "56": 7969,
      "mini": 7970,
      "derecede": 7971,
      "kullandığı": 7972,
      "##lıca": 7973,
      "##andarma": 7974,
      "üyelik": 7975,
      "ört": 7976,
      "##tuğu": 7977,
      "Yür": 7978,
      "##kor": 7979,
      "bitk": 7980,
      "Sem": 7981,
      "gayet": 7982,
      "hoca": 7983,
      "Etiketler": 7984,
      "Mez": 7985,
      "milletvekil": 7986,
      "sız": 7987,
      "##urdu": 7988,
      "geleceğ": 7989,
      "günden": 7990,
      "##biy": 7991,
      "başlıklı": 7992,
      "Eskişehir": 7993,
      "Bi": 7994,
      "##ıyorlar": 7995,
      "itiraz": 7996,
      "Kent": 7997,
      "Bunların": 7998,
      "ira": 7999,
      "Nec": 8000,
      "maruz": 8001,
      "sonuçlar": 8002,
      "karma": 8003,
      "kısı": 8004,
      "birine": 8005,
      "Maç": 8006,
      "Hakkında": 8007,
      "pratik": 8008,
      "##tikten": 8009,
      "başı": 8010,
      "MAD": 8011,
      "biy": 8012,
      "“G": 8013,
      "Fu": 8014,
      "yetersiz": 8015,
      "##soy": 8016,
      "istemiyorum": 8017,
      "İşleri": 8018,
      "adayı": 8019,
      "attı": 8020,
      "Adalet": 8021,
      "##barı": 8022,
      "anlattı": 8023,
      "##ette": 8024,
      "##alefet": 8025,
      "barındır": 8026,
      "hasar": 8027,
      "Stan": 8028,
      "istediğini": 8029,
      "Aşağı": 8030,
      "##dış": 8031,
      "sporcu": 8032,
      "Vali": 8033,
      "##jen": 8034,
      "##diy": 8035,
      "kelime": 8036,
      "##tılı": 8037,
      "##fik": 8038,
      "başlamış": 8039,
      "kimyasal": 8040,
      "##uluğ": 8041,
      "##vat": 8042,
      "##ülüyor": 8043,
      "##MA": 8044,
      "Roma": 8045,
      "dolarlık": 8046,
      "rö": 8047,
      "Araç": 8048,
      "Hik": 8049,
      "zirv": 8050,
      "varlık": 8051,
      "eğlenceli": 8052,
      "gerekse": 8053,
      "gözük": 8054,
      "uyku": 8055,
      "türü": 8056,
      "##ıyordu": 8057,
      "toplumun": 8058,
      "##tup": 8059,
      "gelişmiş": 8060,
      "##vel": 8061,
      "sorunlar": 8062,
      "Tabi": 8063,
      "##ump": 8064,
      "inci": 8065,
      "##asi": 8066,
      "##pat": 8067,
      "sürücü": 8068,
      "##diğimi": 8069,
      "##ýþ": 8070,
      "YTL": 8071,
      "##lerimi": 8072,
      "görebil": 8073,
      "Baba": 8074,
      "köp": 8075,
      "harekete": 8076,
      "tehlikeli": 8077,
      "##prü": 8078,
      "di": 8079,
      "dinle": 8080,
      "##çu": 8081,
      "##İD": 8082,
      "tepk": 8083,
      "diplo": 8084,
      "##11": 8085,
      "##danı": 8086,
      "görmüş": 8087,
      "bakalım": 8088,
      "dikkatli": 8089,
      "doy": 8090,
      "uyumlu": 8091,
      "olunca": 8092,
      "##priz": 8093,
      "Ücret": 8094,
      "##ang": 8095,
      "64": 8096,
      "Programı": 8097,
      "farkı": 8098,
      "alması": 8099,
      "##usuf": 8100,
      "güne": 8101,
      "##ibe": 8102,
      "##mediğini": 8103,
      "duruyor": 8104,
      "sessiz": 8105,
      "tap": 8106,
      "çalışmalarını": 8107,
      "düşüş": 8108,
      "##ann": 8109,
      "Hizmetleri": 8110,
      "metin": 8111,
      "##ometre": 8112,
      "Müşter": 8113,
      "##fat": 8114,
      "onur": 8115,
      "Da": 8116,
      "IM": 8117,
      "istanbul": 8118,
      "tok": 8119,
      "##asız": 8120,
      "kazanç": 8121,
      "57": 8122,
      "tedavisi": 8123,
      "denk": 8124,
      "çatışma": 8125,
      "tali": 8126,
      "öncelik": 8127,
      "##üce": 8128,
      "Kuş": 8129,
      "bekleniyor": 8130,
      "##witter": 8131,
      "##red": 8132,
      "##talyan": 8133,
      "Bulgar": 8134,
      "##omo": 8135,
      "zeytin": 8136,
      "##lamayı": 8137,
      "##yiz": 8138,
      "soruşturma": 8139,
      "yönetmen": 8140,
      "yılının": 8141,
      "olmaması": 8142,
      "Saç": 8143,
      "2019": 8144,
      "verdim": 8145,
      "sözü": 8146,
      "Kısa": 8147,
      "Destek": 8148,
      "Para": 8149,
      "Orman": 8150,
      "##irli": 8151,
      "masa": 8152,
      "inanç": 8153,
      "##elerek": 8154,
      "sö": 8155,
      "Sel": 8156,
      "eğil": 8157,
      "zorluk": 8158,
      "noktası": 8159,
      "günümüzde": 8160,
      "##ji": 8161,
      "##itler": 8162,
      "Hayvan": 8163,
      "sonsuz": 8164,
      "kral": 8165,
      "diyet": 8166,
      "##iplin": 8167,
      "emekli": 8168,
      "gelmesi": 8169,
      "Mo": 8170,
      "Rek": 8171,
      "ulaşım": 8172,
      "haberi": 8173,
      "yapmayı": 8174,
      "gelince": 8175,
      "Vatan": 8176,
      "erk": 8177,
      "gerçekleşen": 8178,
      "artan": 8179,
      "Küt": 8180,
      "kumaş": 8181,
      "##şe": 8182,
      "edilmektedir": 8183,
      "##tor": 8184,
      "kâ": 8185,
      "metal": 8186,
      "Yönetimi": 8187,
      "Londra": 8188,
      "kenar": 8189,
      "mektup": 8190,
      "##şembe": 8191,
      "##lete": 8192,
      "kulüb": 8193,
      "##kınma": 8194,
      "ettiler": 8195,
      "festiv": 8196,
      "##bala": 8197,
      "##emem": 8198,
      "Üyesi": 8199,
      "Çift": 8200,
      "Temel": 8201,
      "Dig": 8202,
      "tazmin": 8203,
      "sıvı": 8204,
      "olmaktan": 8205,
      "US": 8206,
      "verim": 8207,
      "ran": 8208,
      "hariç": 8209,
      "anay": 8210,
      "olama": 8211,
      "yönel": 8212,
      "yıllardır": 8213,
      "milletvekili": 8214,
      "mm": 8215,
      "kıv": 8216,
      "dönüşüm": 8217,
      "evren": 8218,
      "##und": 8219,
      "##orno": 8220,
      "Yapı": 8221,
      "Kocaeli": 8222,
      "Me": 8223,
      "sermaye": 8224,
      "##örü": 8225,
      "gayret": 8226,
      "sitemiz": 8227,
      "##ildiğini": 8228,
      "Sivas": 8229,
      "##unuzu": 8230,
      "İspanya": 8231,
      "##landığını": 8232,
      "alanları": 8233,
      "yapın": 8234,
      "mezar": 8235,
      "51": 8236,
      "bulabilirsiniz": 8237,
      "##lıyorum": 8238,
      "yöntemi": 8239,
      "kalıcı": 8240,
      "kısıt": 8241,
      "ayda": 8242,
      "Tok": 8243,
      "250": 8244,
      "bileş": 8245,
      "##ami": 8246,
      "İletişim": 8247,
      "isterim": 8248,
      "kolaylaştır": 8249,
      "muhaf": 8250,
      "yılları": 8251,
      "olurdu": 8252,
      "yapması": 8253,
      "##ülür": 8254,
      "özgürlük": 8255,
      "düğün": 8256,
      "yolculuk": 8257,
      "Saray": 8258,
      "##üman": 8259,
      "##leye": 8260,
      "çekici": 8261,
      "pis": 8262,
      "va": 8263,
      "alanlar": 8264,
      "lük": 8265,
      "kariyer": 8266,
      "suretiyle": 8267,
      "Resmi": 8268,
      "##tifak": 8269,
      "sunul": 8270,
      "sıfır": 8271,
      "##Lİ": 8272,
      "##fil": 8273,
      "tasarımı": 8274,
      "##tayız": 8275,
      "cenaz": 8276,
      "güvenliği": 8277,
      "belgesi": 8278,
      "Eğitimi": 8279,
      "##ert": 8280,
      "Yukarı": 8281,
      "örgütü": 8282,
      "hali": 8283,
      "##larınızın": 8284,
      "##maktır": 8285,
      "darb": 8286,
      "Uzman": 8287,
      "##IZ": 8288,
      "##amın": 8289,
      "selam": 8290,
      "tutul": 8291,
      "sahne": 8292,
      "planı": 8293,
      "##ülent": 8294,
      "##lesi": 8295,
      "##şap": 8296,
      "sınırlı": 8297,
      "firması": 8298,
      "miktarda": 8299,
      "verimli": 8300,
      "Sabah": 8301,
      "meclis": 8302,
      "##dava": 8303,
      "mevcuttur": 8304,
      "yaptığımız": 8305,
      "Bet": 8306,
      "Kur’": 8307,
      "Konseyi": 8308,
      "Fi": 8309,
      "altını": 8310,
      "arkadaşım": 8311,
      "##ciğer": 8312,
      "He": 8313,
      "sergil": 8314,
      "kaps": 8315,
      "Çak": 8316,
      "musunuz": 8317,
      "sırt": 8318,
      "##LE": 8319,
      "metrek": 8320,
      "Sun": 8321,
      "##tası": 8322,
      "Projesi": 8323,
      "keyifli": 8324,
      "kahve": 8325,
      "uyuşturucu": 8326,
      "İt": 8327,
      "Federasyonu": 8328,
      "##cunun": 8329,
      "Kes": 8330,
      "Duy": 8331,
      "çizg": 8332,
      "sertif": 8333,
      "##içi": 8334,
      "sözleşme": 8335,
      "seven": 8336,
      "192": 8337,
      "tipi": 8338,
      "istis": 8339,
      "seviyorum": 8340,
      "kusur": 8341,
      "Cumartesi": 8342,
      "Örg": 8343,
      "sunulan": 8344,
      "Proje": 8345,
      "alama": 8346,
      "Kredi": 8347,
      "hastalığı": 8348,
      "isteme": 8349,
      "etmez": 8350,
      "memleket": 8351,
      "düzenleme": 8352,
      "yapılıyor": 8353,
      "##otik": 8354,
      "yu": 8355,
      "çalışmaya": 8356,
      "Emek": 8357,
      "##ağını": 8358,
      "##luyor": 8359,
      "##CI": 8360,
      "##malıyız": 8361,
      "olduğunda": 8362,
      "İST": 8363,
      "İnşaat": 8364,
      "Güç": 8365,
      "MADDE": 8366,
      "zinc": 8367,
      "Meclisi": 8368,
      "Com": 8369,
      "müs": 8370,
      "Müdürlüğ": 8371,
      "Karak": 8372,
      "kahvaltı": 8373,
      "##indistan": 8374,
      "anlatıyor": 8375,
      "Kayseri": 8376,
      "Yusuf": 8377,
      "Anne": 8378,
      "Öncelikle": 8379,
      "Gıda": 8380,
      "geb": 8381,
      "bomba": 8382,
      "bulur": 8383,
      "muay": 8384,
      "##led": 8385,
      "kullanı": 8386,
      "Emin": 8387,
      "mavi": 8388,
      "Apple": 8389,
      "bireysel": 8390,
      "taraftan": 8391,
      "##iciler": 8392,
      "##larınıza": 8393,
      "##utma": 8394,
      "##lanmaktadır": 8395,
      "alışkan": 8396,
      "geldiğinde": 8397,
      "mir": 8398,
      "meyve": 8399,
      "çelik": 8400,
      "##cüsü": 8401,
      "alınır": 8402,
      "Gez": 8403,
      "çalışır": 8404,
      "##abilen": 8405,
      "Bununla": 8406,
      "##ekom": 8407,
      "##leyin": 8408,
      "Ortak": 8409,
      "Pla": 8410,
      "Zor": 8411,
      "yönde": 8412,
      "##yim": 8413,
      "düzenlediği": 8414,
      "Ala": 8415,
      "özgü": 8416,
      "Aşk": 8417,
      "mail": 8418,
      "##OT": 8419,
      "uygulanan": 8420,
      "arzu": 8421,
      "günah": 8422,
      "kararlı": 8423,
      "kullanılması": 8424,
      "##cıları": 8425,
      "Orhan": 8426,
      "üs": 8427,
      "ülkelerin": 8428,
      "##leştirme": 8429,
      "Bülent": 8430,
      "gördü": 8431,
      "cesaret": 8432,
      "içinden": 8433,
      "kırık": 8434,
      "Erzurum": 8435,
      "Eb": 8436,
      "anında": 8437,
      "İtalyan": 8438,
      "Yazar": 8439,
      "##ph": 8440,
      "Hemen": 8441,
      "##rip": 8442,
      "verilecek": 8443,
      "teor": 8444,
      "##rist": 8445,
      "esnaf": 8446,
      "##ife": 8447,
      "iyileştir": 8448,
      "ekonomi": 8449,
      "##lant": 8450,
      "evinde": 8451,
      "##imini": 8452,
      "ekmek": 8453,
      "yeterince": 8454,
      "göstermek": 8455,
      "bulunmak": 8456,
      "konuyu": 8457,
      "topr": 8458,
      "yıla": 8459,
      "vade": 8460,
      "191": 8461,
      "nih": 8462,
      "bulunması": 8463,
      "ağr": 8464,
      "##ida": 8465,
      "mağdur": 8466,
      "Bus": 8467,
      "önemi": 8468,
      "Fon": 8469,
      "erişim": 8470,
      "olduğumu": 8471,
      "Kira": 8472,
      "##lâm": 8473,
      "Barış": 8474,
      "gözden": 8475,
      "düşünür": 8476,
      "küç": 8477,
      "##irin": 8478,
      "Bazen": 8479,
      "Dağ": 8480,
      "val": 8481,
      "nesil": 8482,
      "seninle": 8483,
      "üstlen": 8484,
      "##ill": 8485,
      "Toplam": 8486,
      "okur": 8487,
      "##liyorum": 8488,
      "##ste": 8489,
      "##diğinden": 8490,
      "beklenen": 8491,
      "Gerçekten": 8492,
      "Ail": 8493,
      "##ükleer": 8494,
      "sendik": 8495,
      "Kos": 8496,
      "Çay": 8497,
      "mantık": 8498,
      "##mes": 8499,
      "odası": 8500,
      "araz": 8501,
      "Mor": 8502,
      "tarihinden": 8503,
      "Silah": 8504,
      "##ülmüş": 8505,
      "öldü": 8506,
      "Hız": 8507,
      "##balık": 8508,
      "nakliyat": 8509,
      "Ku": 8510,
      "alg": 8511,
      "cas": 8512,
      "biliyoruz": 8513,
      "Şer": 8514,
      "##idi": 8515,
      "##amuk": 8516,
      "galibiyet": 8517,
      "##EO": 8518,
      "##sü": 8519,
      "Yalnız": 8520,
      "güz": 8521,
      "derken": 8522,
      "evine": 8523,
      "##kun": 8524,
      "Birleşik": 8525,
      "parlak": 8526,
      "63": 8527,
      "59": 8528,
      "zemin": 8529,
      "Fen": 8530,
      "##ach": 8531,
      "turist": 8532,
      "##desi": 8533,
      "##mara": 8534,
      "öğrenmek": 8535,
      "evi": 8536,
      "çıkıp": 8537,
      "##tiğim": 8538,
      "kişiyi": 8539,
      "dernek": 8540,
      "Ho": 8541,
      "##itik": 8542,
      "çabuk": 8543,
      "##eleriyle": 8544,
      "ailen": 8545,
      "laf": 8546,
      "sağlığı": 8547,
      "Özgür": 8548,
      "netic": 8549,
      "Uğ": 8550,
      "Android": 8551,
      "nün": 8552,
      "değerlendirme": 8553,
      "reform": 8554,
      "süreçte": 8555,
      "ederiz": 8556,
      "Piyas": 8557,
      "Edebiyat": 8558,
      "arkasında": 8559,
      "faydalı": 8560,
      "Tanı": 8561,
      "eb": 8562,
      "ış": 8563,
      "Pazartesi": 8564,
      "##landırma": 8565,
      "rehber": 8566,
      "##diven": 8567,
      "Mik": 8568,
      "“Bu": 8569,
      "Birinci": 8570,
      "##we": 8571,
      "Sta": 8572,
      "Hareket": 8573,
      "Sistemi": 8574,
      "vah": 8575,
      "gittik": 8576,
      "kursu": 8577,
      "##nav": 8578,
      "##giz": 8579,
      "Başv": 8580,
      "600": 8581,
      "hakkındaki": 8582,
      "icin": 8583,
      "kamyon": 8584,
      "Kir": 8585,
      "mümkündür": 8586,
      "toplantısında": 8587,
      "bulunduğunu": 8588,
      "port": 8589,
      "miyim": 8590,
      "Teknoloji": 8591,
      "olmasa": 8592,
      "harf": 8593,
      "ağız": 8594,
      "garant": 8595,
      "Herkes": 8596,
      "##AF": 8597,
      "##lup": 8598,
      "Kaya": 8599,
      "cami": 8600,
      "karşılaştır": 8601,
      "Bölgesi": 8602,
      "##lamaları": 8603,
      "çı": 8604,
      "işyer": 8605,
      "link": 8606,
      "alanlarda": 8607,
      "kıymet": 8608,
      "##ruk": 8609,
      "##iti": 8610,
      "etmeyi": 8611,
      "sürpriz": 8612,
      "##üyü": 8613,
      "çekiyor": 8614,
      "masraf": 8615,
      "bağımlı": 8616,
      "çekim": 8617,
      "niye": 8618,
      "alkol": 8619,
      "saatlerinde": 8620,
      "Lisans": 8621,
      "görevl": 8622,
      "tüketim": 8623,
      "##mini": 8624,
      "##tıktan": 8625,
      "##mamak": 8626,
      "prim": 8627,
      "##IŞ": 8628,
      "olmanın": 8629,
      "numarası": 8630,
      "##ınan": 8631,
      "99": 8632,
      "Tut": 8633,
      "iğ": 8634,
      "##LAN": 8635,
      "##elal": 8636,
      "AD": 8637,
      "oluşturan": 8638,
      "aşı": 8639,
      "başarısız": 8640,
      "Birçok": 8641,
      "##otos": 8642,
      "##yalet": 8643,
      "Tiyatro": 8644,
      "##ider": 8645,
      "üstü": 8646,
      "sanay": 8647,
      "damar": 8648,
      "radyo": 8649,
      "##kim": 8650,
      "##eyerek": 8651,
      "geride": 8652,
      "##anada": 8653,
      "kaydı": 8654,
      "##abilm": 8655,
      "aklı": 8656,
      "komut": 8657,
      "##azer": 8658,
      "##OK": 8659,
      "##ulmaz": 8660,
      "oyunun": 8661,
      "kilometre": 8662,
      "Yemek": 8663,
      "Azer": 8664,
      "Bodrum": 8665,
      "Amerikalı": 8666,
      "ulaştır": 8667,
      "Yabancı": 8668,
      "##ıbbi": 8669,
      "felsef": 8670,
      "hediy": 8671,
      "yur": 8672,
      "Oto": 8673,
      "Nev": 8674,
      "##tein": 8675,
      "geçiyor": 8676,
      "##IS": 8677,
      "Hiçbir": 8678,
      "##âlâ": 8679,
      "##işan": 8680,
      "yel": 8681,
      "edilerek": 8682,
      "##umun": 8683,
      "rahmet": 8684,
      "açtı": 8685,
      "Satış": 8686,
      "Ajans": 8687,
      "##akk": 8688,
      "##lamada": 8689,
      "bulan": 8690,
      "adresi": 8691,
      "emniyet": 8692,
      "katıldığı": 8693,
      "Terör": 8694,
      "çik": 8695,
      "rüya": 8696,
      "Escort": 8697,
      "Çarşamba": 8698,
      "##ress": 8699,
      "konfor": 8700,
      "##slan": 8701,
      "Haberleri": 8702,
      "ÖZ": 8703,
      "çekil": 8704,
      "olmaları": 8705,
      "kemik": 8706,
      "emir": 8707,
      "sürecinde": 8708,
      "##usundaki": 8709,
      "##ington": 8710,
      "kalmak": 8711,
      "baktığ": 8712,
      "Üstelik": 8713,
      "##YA": 8714,
      "inceleme": 8715,
      "##esto": 8716,
      "##arik": 8717,
      "Karab": 8718,
      "güzellik": 8719,
      "forma": 8720,
      "Bos": 8721,
      "öğle": 8722,
      "yaratıcı": 8723,
      "log": 8724,
      "havuz": 8725,
      "##ecik": 8726,
      "##80": 8727,
      "ücreti": 8728,
      "##ende": 8729,
      "##muştu": 8730,
      "Bebek": 8731,
      "kör": 8732,
      "bilgisi": 8733,
      "##eğine": 8734,
      "Japonya": 8735,
      "##ukur": 8736,
      "adıyla": 8737,
      "Hükümet": 8738,
      "Hanım": 8739,
      "##ani": 8740,
      "##das": 8741,
      "sürüyor": 8742,
      "Tesis": 8743,
      "##fendi": 8744,
      "##mali": 8745,
      "##zersiz": 8746,
      "Savunma": 8747,
      "##fed": 8748,
      "öp": 8749,
      "bizimle": 8750,
      "istikrar": 8751,
      "##lığından": 8752,
      "fet": 8753,
      "turn": 8754,
      "sekiz": 8755,
      "İlç": 8756,
      "##halat": 8757,
      "##kilat": 8758,
      "##laşması": 8759,
      "Tasarım": 8760,
      "belge": 8761,
      "Şark": 8762,
      "akr": 8763,
      "arasından": 8764,
      "Fik": 8765,
      "Konuş": 8766,
      "bakın": 8767,
      "arasına": 8768,
      "##alimanı": 8769,
      "95": 8770,
      "Servisi": 8771,
      "tay": 8772,
      "mahkeme": 8773,
      "erkekler": 8774,
      "##enizi": 8775,
      "Vol": 8776,
      "sisteminin": 8777,
      "şehrin": 8778,
      "##’tan": 8779,
      "Yoksa": 8780,
      "mikro": 8781,
      "panel": 8782,
      "arayan": 8783,
      "İmam": 8784,
      "hayatın": 8785,
      "Mimar": 8786,
      "dışına": 8787,
      "KAR": 8788,
      "muhalefet": 8789,
      "##riyet": 8790,
      "KK": 8791,
      "Trabzonspor": 8792,
      "##çeği": 8793,
      "##tma": 8794,
      "sevgili": 8795,
      "##lob": 8796,
      "gelişme": 8797,
      "liste": 8798,
      "diyorum": 8799,
      "##ersen": 8800,
      "Emre": 8801,
      "anlar": 8802,
      "##sis": 8803,
      "teşekkürler": 8804,
      "söylemiş": 8805,
      "Ata": 8806,
      "fırsatı": 8807,
      "hiss": 8808,
      "Lim": 8809,
      "##alog": 8810,
      "##paz": 8811,
      "##uşu": 8812,
      "traf": 8813,
      "beslenme": 8814,
      "defter": 8815,
      "bölün": 8816,
      "Kore": 8817,
      "66": 8818,
      "şahıs": 8819,
      "##larý": 8820,
      "Metin": 8821,
      "85": 8822,
      "Tav": 8823,
      "ulaşmak": 8824,
      "##yabil": 8825,
      "uygulamaları": 8826,
      "##culuk": 8827,
      "sakat": 8828,
      "##gn": 8829,
      "potansiyel": 8830,
      "olmuştu": 8831,
      "##yaspor": 8832,
      "Kızıl": 8833,
      "##lerdeki": 8834,
      "düşündüğ": 8835,
      "yoğ": 8836,
      "##mıştım": 8837,
      "Yönetmeli": 8838,
      "Tür": 8839,
      "Ant": 8840,
      "egemen": 8841,
      "başladım": 8842,
      "olaylar": 8843,
      "##raz": 8844,
      "Ph": 8845,
      "Lütfen": 8846,
      "##uğla": 8847,
      "##ılabilecek": 8848,
      "##abileceği": 8849,
      "##LARI": 8850,
      "##deceğ": 8851,
      "yapmanız": 8852,
      "##alel": 8853,
      "göğüs": 8854,
      "##ebilirim": 8855,
      "##madım": 8856,
      "##lex": 8857,
      "##OM": 8858,
      "ortada": 8859,
      "tamir": 8860,
      "inti": 8861,
      "Yarış": 8862,
      "dili": 8863,
      "edeceğiz": 8864,
      "yargılan": 8865,
      "Bize": 8866,
      "üretilen": 8867,
      "##ünce": 8868,
      "vadeli": 8869,
      "zehir": 8870,
      "##lemiş": 8871,
      "annesi": 8872,
      "Sol": 8873,
      "Gazete": 8874,
      "Geçtiğimiz": 8875,
      "gelerek": 8876,
      "##isindeki": 8877,
      "kamuoy": 8878,
      "##latma": 8879,
      "hekim": 8880,
      "##amızda": 8881,
      "meyv": 8882,
      "1999": 8883,
      "İstanbul’da": 8884,
      "Not": 8885,
      "bakar": 8886,
      "öğrencileri": 8887,
      "olabilecek": 8888,
      "##AĞ": 8889,
      "Denizli": 8890,
      "Caddesi": 8891,
      "sizleri": 8892,
      "Enstitüsü": 8893,
      "ürünlerin": 8894,
      "nı": 8895,
      "##ebiliyor": 8896,
      "##hir": 8897,
      "Hes": 8898,
      "demokrasi": 8899,
      "memnuniyet": 8900,
      "##LERİ": 8901,
      "Festivali": 8902,
      "Doğal": 8903,
      "gördüğü": 8904,
      "sesi": 8905,
      "sayısının": 8906,
      "satışa": 8907,
      "mesle": 8908,
      "ettikleri": 8909,
      "Sine": 8910,
      "maalesef": 8911,
      "67": 8912,
      "##lası": 8913,
      "görevlendir": 8914,
      "Seçim": 8915,
      "kaybetti": 8916,
      "İr": 8917,
      "mağaza": 8918,
      "Bahçeli": 8919,
      "dosy": 8920,
      "Belg": 8921,
      "kimin": 8922,
      "iPhone": 8923,
      "kov": 8924,
      "sebeple": 8925,
      "##bahar": 8926,
      "kalıp": 8927,
      "##nu": 8928,
      "ısrar": 8929,
      "##lukla": 8930,
      "Oper": 8931,
      "Min": 8932,
      "rekor": 8933,
      "hayırlı": 8934,
      "kutu": 8935,
      "Taraf": 8936,
      "ailesi": 8937,
      "##medik": 8938,
      "süreli": 8939,
      "döndü": 8940,
      "Psik": 8941,
      "pencer": 8942,
      "Hindistan": 8943,
      "Op": 8944,
      "Etkin": 8945,
      "öm": 8946,
      "##ydi": 8947,
      "deri": 8948,
      "dayanıklı": 8949,
      "##ladım": 8950,
      "##ektif": 8951,
      "##oper": 8952,
      "Ziy": 8953,
      "##lanmak": 8954,
      "Sakarya": 8955,
      "##sesuar": 8956,
      "##’li": 8957,
      "merkezinde": 8958,
      "##ýl": 8959,
      "olmuyor": 8960,
      "Sonr": 8961,
      "donanım": 8962,
      "##gül": 8963,
      "##ASI": 8964,
      "##ılmak": 8965,
      "ust": 8966,
      "Pap": 8967,
      "canlandır": 8968,
      "dör": 8969,
      "versiyon": 8970,
      "yüzlerce": 8971,
      "mün": 8972,
      "imkân": 8973,
      "sün": 8974,
      "işletme": 8975,
      "olduğunun": 8976,
      "alana": 8977,
      "ikram": 8978,
      "hakkını": 8979,
      "##tek": 8980,
      "İb": 8981,
      "##ikal": 8982,
      "işini": 8983,
      "fabrika": 8984,
      "bonus": 8985,
      "idari": 8986,
      "protokol": 8987,
      "oynay": 8988,
      "geriye": 8989,
      "##iliğini": 8990,
      "hükm": 8991,
      "Yaklaşık": 8992,
      "Örgüt": 8993,
      "getirdiği": 8994,
      "##gıt": 8995,
      "olabilirsiniz": 8996,
      "Lev": 8997,
      "kullanılabilir": 8998,
      "yapıyoruz": 8999,
      "haberleri": 9000,
      "görüyoruz": 9001,
      "oranda": 9002,
      "##ATO": 9003,
      "icra": 9004,
      "elbis": 9005,
      "vası": 9006,
      "Komutan": 9007,
      "kaydeden": 9008,
      "koca": 9009,
      "Maliye": 9010,
      "Vide": 9011,
      "pahalı": 9012,
      "kendinizi": 9013,
      "##ğına": 9014,
      "garanti": 9015,
      "##lon": 9016,
      "##stagram": 9017,
      "edici": 9018,
      "aralık": 9019,
      "yukarıda": 9020,
      "çıkması": 9021,
      "Ardından": 9022,
      "batı": 9023,
      "Mesela": 9024,
      "##rü": 9025,
      "durumun": 9026,
      "kuy": 9027,
      "hatt": 9028,
      "inf": 9029,
      "##ky": 9030,
      "makyaj": 9031,
      "Kahraman": 9032,
      "akış": 9033,
      "Bayramı": 9034,
      "göstermektedir": 9035,
      "##eydi": 9036,
      "nereden": 9037,
      "##ât": 9038,
      "Th": 9039,
      "##öv": 9040,
      "##lî": 9041,
      "##sav": 9042,
      "ajans": 9043,
      "garip": 9044,
      "Gelen": 9045,
      "##ee": 9046,
      "kons": 9047,
      "kanat": 9048,
      "##meliyiz": 9049,
      "silin": 9050,
      "ırk": 9051,
      "yumuşak": 9052,
      "pu": 9053,
      "bekleyen": 9054,
      "İşlem": 9055,
      "dedik": 9056,
      "##sün": 9057,
      "##gari": 9058,
      "##ight": 9059,
      "yolunu": 9060,
      "##leyip": 9061,
      "miktarı": 9062,
      "yürürlüğe": 9063,
      "keyf": 9064,
      "org": 9065,
      "Ort": 9066,
      "##anda": 9067,
      "TC": 9068,
      "ikna": 9069,
      "gelmiştir": 9070,
      "çizgi": 9071,
      "yemeği": 9072,
      "yazılmış": 9073,
      "uzay": 9074,
      "##lasman": 9075,
      "##isti": 9076,
      "aldık": 9077,
      "Salı": 9078,
      "lit": 9079,
      "denir": 9080,
      "##tral": 9081,
      "##ayol": 9082,
      "Trump": 9083,
      "##ates": 9084,
      "YÖ": 9085,
      "psikolojik": 9086,
      "Temsil": 9087,
      "yayımlanan": 9088,
      "##büs": 9089,
      "hadis": 9090,
      "katkıda": 9091,
      "##ube": 9092,
      "açıkça": 9093,
      "tarafı": 9094,
      "som": 9095,
      "bilmek": 9096,
      "kaşı": 9097,
      "##io": 9098,
      "prens": 9099,
      "Mel": 9100,
      "makinesi": 9101,
      "##ive": 9102,
      "açan": 9103,
      "öğrenildi": 9104,
      "meden": 9105,
      "haftada": 9106,
      "kurmak": 9107,
      "redde": 9108,
      "##bı": 9109,
      "yılına": 9110,
      "Perşembe": 9111,
      "seçimi": 9112,
      "almıştır": 9113,
      "ayakta": 9114,
      "1000": 9115,
      "##’nden": 9116,
      "seyret": 9117,
      "##balaj": 9118,
      "itibarı": 9119,
      "firmamız": 9120,
      "ikisi": 9121,
      "##iski": 9122,
      "zamandır": 9123,
      "olsaydı": 9124,
      "##medim": 9125,
      "görünce": 9126,
      "iba": 9127,
      "nö": 9128,
      "##raç": 9129,
      "##eker": 9130,
      "ikin": 9131,
      "sabır": 9132,
      "sever": 9133,
      "Kontrol": 9134,
      "şeyden": 9135,
      "##po": 9136,
      "##çın": 9137,
      "Basın": 9138,
      "##arap": 9139,
      "fabrik": 9140,
      "konferans": 9141,
      "trilyon": 9142,
      "62": 9143,
      "bizlere": 9144,
      "kabil": 9145,
      "Mağ": 9146,
      "sinyal": 9147,
      "efsan": 9148,
      "cennet": 9149,
      "##duktan": 9150,
      "##ks": 9151,
      "şair": 9152,
      "go": 9153,
      "##cın": 9154,
      "IMF": 9155,
      "bunlara": 9156,
      "aptal": 9157,
      "BİR": 9158,
      "Hafta": 9159,
      "kendisinin": 9160,
      "Sorum": 9161,
      "##ÜR": 9162,
      "beslen": 9163,
      "##alıyor": 9164,
      "mekaniz": 9165,
      "İmparator": 9166,
      "oluşur": 9167,
      "dolara": 9168,
      "##stil": 9169,
      "değişikliği": 9170,
      "eme": 9171,
      "##urk": 9172,
      "senar": 9173,
      "aksine": 9174,
      "Teb": 9175,
      "Şanlı": 9176,
      "şirketin": 9177,
      "yerleri": 9178,
      "açma": 9179,
      "##ezilya": 9180,
      "sağlanması": 9181,
      "##amaş": 9182,
      "yaprak": 9183,
      "hip": 9184,
      "raporu": 9185,
      "toplantısı": 9186,
      "AY": 9187,
      "Allah’ın": 9188,
      "delik": 9189,
      "efendim": 9190,
      "Ağır": 9191,
      "Finans": 9192,
      "nereye": 9193,
      "NATO": 9194,
      "çıktığı": 9195,
      "projeler": 9196,
      "başladığı": 9197,
      "Söyle": 9198,
      "atık": 9199,
      "payı": 9200,
      "Motor": 9201,
      "##ılığı": 9202,
      "##sının": 9203,
      "şük": 9204,
      "görevini": 9205,
      "muk": 9206,
      "arıyor": 9207,
      "tutum": 9208,
      "İnsanlar": 9209,
      "gerekirse": 9210,
      "ödey": 9211,
      "birliği": 9212,
      "Farklı": 9213,
      "çak": 9214,
      "düşünü": 9215,
      "cerrah": 9216,
      "bacak": 9217,
      "bölgeye": 9218,
      "iman": 9219,
      "gelmektedir": 9220,
      "##bakanı": 9221,
      "banyo": 9222,
      "##alığı": 9223,
      "##ılmaya": 9224,
      "Uğur": 9225,
      "Ker": 9226,
      "nez": 9227,
      "TÜRK": 9228,
      "devir": 9229,
      "eşlik": 9230,
      "##cük": 9231,
      "##kenti": 9232,
      "özet": 9233,
      "Ruh": 9234,
      "Değişik": 9235,
      "Günümüzde": 9236,
      "##ERS": 9237,
      "Person": 9238,
      "Tipi": 9239,
      "izlemek": 9240,
      "seçenekleri": 9241,
      "Marmara": 9242,
      "ente": 9243,
      "malzemeleri": 9244,
      "takımın": 9245,
      "##halde": 9246,
      "##aklı": 9247,
      "Nih": 9248,
      "pilot": 9249,
      "kargo": 9250,
      "anlayışı": 9251,
      "yapılmaktadır": 9252,
      "ömür": 9253,
      "##ebi": 9254,
      "rahatlıkla": 9255,
      "kiralık": 9256,
      "72": 9257,
      "Soy": 9258,
      "Na": 9259,
      "rengi": 9260,
      "br": 9261,
      "##cilerin": 9262,
      "koordin": 9263,
      "##bistan": 9264,
      "82": 9265,
      "düzgün": 9266,
      "saati": 9267,
      "doğan": 9268,
      "##tre": 9269,
      "şekli": 9270,
      "##MS": 9271,
      "piyasaya": 9272,
      "alırken": 9273,
      "fuar": 9274,
      "aşkın": 9275,
      "yuvar": 9276,
      "dışındaki": 9277,
      "sunum": 9278,
      "çıkma": 9279,
      "##out": 9280,
      "##espor": 9281,
      "mülk": 9282,
      "##sever": 9283,
      "Ortadoğu": 9284,
      "Digit": 9285,
      "Japon": 9286,
      "##don": 9287,
      "sakın": 9288,
      "Işık": 9289,
      "topu": 9290,
      "Naz": 9291,
      "endek": 9292,
      "##ecekler": 9293,
      "Sigorta": 9294,
      "##mekle": 9295,
      "##LÜ": 9296,
      "Kaymakam": 9297,
      "##lanıp": 9298,
      "duyarlı": 9299,
      "koleksiyon": 9300,
      "##ersiniz": 9301,
      "Nit": 9302,
      "##imizle": 9303,
      "##US": 9304,
      "##30": 9305,
      "##liğiyle": 9306,
      "##rimenkul": 9307,
      "Diz": 9308,
      "##çılık": 9309,
      "sunduğu": 9310,
      "Yaşam": 9311,
      "duygusal": 9312,
      "##beri": 9313,
      "Kör": 9314,
      "ahlak": 9315,
      "görüşme": 9316,
      "Kayı": 9317,
      "Servis": 9318,
      "##atın": 9319,
      "kaldığı": 9320,
      "yağı": 9321,
      "##ijinal": 9322,
      "Öğrenci": 9323,
      "Soru": 9324,
      "Göl": 9325,
      "bitki": 9326,
      "Gala": 9327,
      "Köyü": 9328,
      "İslâm": 9329,
      "randev": 9330,
      "saçma": 9331,
      "Uk": 9332,
      "büyüy": 9333,
      "aran": 9334,
      "bütçe": 9335,
      "##unç": 9336,
      "ST": 9337,
      "evin": 9338,
      "kaybı": 9339,
      "skor": 9340,
      "siyasal": 9341,
      "##âm": 9342,
      "uyarınca": 9343,
      "İŞ": 9344,
      "aylarında": 9345,
      "sorular": 9346,
      "peyn": 9347,
      "Çiçek": 9348,
      "konular": 9349,
      "##bilirim": 9350,
      "dönemin": 9351,
      "##tıklarını": 9352,
      "komşu": 9353,
      "elinden": 9354,
      "##malısınız": 9355,
      "mobilya": 9356,
      "vurguladı": 9357,
      "##üphan": 9358,
      "imzala": 9359,
      "Okulu": 9360,
      "satışı": 9361,
      "sektörü": 9362,
      "etmem": 9363,
      "devreye": 9364,
      "Orada": 9365,
      "şehri": 9366,
      "Hotel": 9367,
      "çalışmalarına": 9368,
      "Türkiye’ye": 9369,
      "mit": 9370,
      "uzan": 9371,
      "Ünlü": 9372,
      "plana": 9373,
      "bozul": 9374,
      "filmin": 9375,
      "gösterdiği": 9376,
      "Aziz": 9377,
      "algı": 9378,
      "Fir": 9379,
      "Char": 9380,
      "enfeksiyon": 9381,
      "##yeni": 9382,
      "çel": 9383,
      "kapsamlı": 9384,
      "##emiyor": 9385,
      "tarafında": 9386,
      "açıklaması": 9387,
      "Brezilya": 9388,
      "anlaya": 9389,
      "kısmını": 9390,
      "##çisi": 9391,
      "ves": 9392,
      "bugünkü": 9393,
      "Boğaz": 9394,
      "##emiyorum": 9395,
      "yapılabil": 9396,
      "işlemler": 9397,
      "Pay": 9398,
      "doku": 9399,
      "sembol": 9400,
      "Rabb": 9401,
      "istasyon": 9402,
      "##oli": 9403,
      "kriter": 9404,
      "mağaz": 9405,
      "seri": 9406,
      "başk": 9407,
      "sizlerle": 9408,
      "##melisiniz": 9409,
      "##ınıyor": 9410,
      "örneği": 9411,
      "##rad": 9412,
      "Model": 9413,
      "Koc": 9414,
      "toh": 9415,
      "##isar": 9416,
      "61": 9417,
      "yorgun": 9418,
      "kullanabilirsiniz": 9419,
      "daire": 9420,
      "##abiliriz": 9421,
      "eşliğinde": 9422,
      "denilen": 9423,
      "Yakın": 9424,
      "pa": 9425,
      "Afgan": 9426,
      "Kong": 9427,
      "Üs": 9428,
      "karşımıza": 9429,
      "varmış": 9430,
      "sınırları": 9431,
      "görevli": 9432,
      "İsa": 9433,
      "bıçak": 9434,
      "##dırma": 9435,
      "KKTC": 9436,
      "sığın": 9437,
      "bahar": 9438,
      "##itif": 9439,
      "paz": 9440,
      "fatura": 9441,
      "geldik": 9442,
      "##ým": 9443,
      "hakem": 9444,
      "##İH": 9445,
      "cümle": 9446,
      "120": 9447,
      "dediği": 9448,
      "Daire": 9449,
      "##aydı": 9450,
      "altındaki": 9451,
      "Col": 9452,
      "vermesi": 9453,
      "Kardeş": 9454,
      "Ermeni": 9455,
      "bizzat": 9456,
      "çekir": 9457,
      "Sad": 9458,
      "organize": 9459,
      "idare": 9460,
      "68": 9461,
      "bulma": 9462,
      "arşiv": 9463,
      "tev": 9464,
      "kaybeden": 9465,
      "##ens": 9466,
      "##artman": 9467,
      "ülkeye": 9468,
      "eğlence": 9469,
      "olmakla": 9470,
      "##ağının": 9471,
      "genişlet": 9472,
      "##dağı": 9473,
      "##mus": 9474,
      "Dönem": 9475,
      "Malz": 9476,
      "oradan": 9477,
      "silahlı": 9478,
      "festival": 9479,
      "gerçekleşti": 9480,
      "öf": 9481,
      "aşık": 9482,
      "##lit": 9483,
      "##umuzun": 9484,
      "hepsini": 9485,
      "##dıkça": 9486,
      "insana": 9487,
      "birinc": 9488,
      "kullanıyor": 9489,
      "çıl": 9490,
      "##avuş": 9491,
      "Demek": 9492,
      "Alev": 9493,
      "inanılmaz": 9494,
      "ilişkileri": 9495,
      "çapında": 9496,
      "satı": 9497,
      "eline": 9498,
      "istemez": 9499,
      "dola": 9500,
      "rüzgar": 9501,
      "##itan": 9502,
      "Ekonomi": 9503,
      "##tip": 9504,
      "istifa": 9505,
      "akademik": 9506,
      "ER": 9507,
      "karanlık": 9508,
      "##linik": 9509,
      "mevsim": 9510,
      "karşılıklı": 9511,
      "Dek": 9512,
      "Mücad": 9513,
      "yapacağı": 9514,
      "okula": 9515,
      "Gece": 9516,
      "Gol": 9517,
      "geçirmek": 9518,
      "Soğ": 9519,
      "me": 9520,
      "günleri": 9521,
      "kayıtlı": 9522,
      "Ulu": 9523,
      "ortasında": 9524,
      "##ANB": 9525,
      "##labilir": 9526,
      "Sokak": 9527,
      "##mesin": 9528,
      "teker": 9529,
      "hemş": 9530,
      "##düncü": 9531,
      "verin": 9532,
      "Dairesi": 9533,
      "nem": 9534,
      "##manıza": 9535,
      "##ARA": 9536,
      "yurtdış": 9537,
      "örneğin": 9538,
      "Hadi": 9539,
      "kazanmak": 9540,
      "saatleri": 9541,
      "##umuzu": 9542,
      "yağış": 9543,
      "Kullanıcı": 9544,
      "Mc": 9545,
      "bıraktı": 9546,
      "69": 9547,
      "karşılığında": 9548,
      "şartları": 9549,
      "hitap": 9550,
      "Şehit": 9551,
      "##UT": 9552,
      "kıyas": 9553,
      "mısın": 9554,
      "herkesi": 9555,
      "bilgilere": 9556,
      "alanına": 9557,
      "Hazine": 9558,
      "senden": 9559,
      "Diş": 9560,
      "por": 9561,
      "Bakım": 9562,
      "##ağına": 9563,
      "kavga": 9564,
      "##eciler": 9565,
      "manevi": 9566,
      "sürük": 9567,
      "yah": 9568,
      "açıldı": 9569,
      "muy": 9570,
      "firmalar": 9571,
      "caz": 9572,
      "##öly": 9573,
      "vizyon": 9574,
      "##laç": 9575,
      "##rosoft": 9576,
      "##acık": 9577,
      "şartı": 9578,
      "katılma": 9579,
      "Tük": 9580,
      "hükümetin": 9581,
      "Çöz": 9582,
      "doğur": 9583,
      "sir": 9584,
      "##tığında": 9585,
      "##mu": 9586,
      "Sim": 9587,
      "##ürriyet": 9588,
      "aldığını": 9589,
      "atar": 9590,
      "gemi": 9591,
      "##alif": 9592,
      "##emaat": 9593,
      "bulabil": 9594,
      "##iner": 9595,
      "slog": 9596,
      "##leniyor": 9597,
      "ilçesi": 9598,
      "görülür": 9599,
      "doğu": 9600,
      "etken": 9601,
      "sunmaktadır": 9602,
      "Teknoloj": 9603,
      "öğrencilere": 9604,
      "isteyenler": 9605,
      "bizden": 9606,
[...]
